[EOS]
[PAD]
[unused0]
[unused1]
[unused2]
[unused3]
[unused4]
[unused5]
[unused6]
[unused7]
[unused8]
[unused9]
[unused10]
[unused11]
[unused12]
[unused13]
[unused14]
[unused15]
[unused16]
[unused17]
[unused18]
[unused19]
[unused20]
[unused21]
[unused22]
[unused23]
[unused24]
[unused25]
[unused26]
[unused27]
[unused28]
[unused29]
[unused30]
[unused31]
[unused32]
[unused33]
[unused34]
[unused35]
[unused36]
[unused37]
[unused38]
[unused39]
[unused40]
[unused41]
[unused42]
[unused43]
[unused44]
[unused45]
[unused46]
[unused47]
[unused48]
[unused49]
[unused50]
[unused51]
[unused52]
[unused53]
[unused54]
[unused55]
[unused56]
[unused57]
[unused58]
[unused59]
[unused60]
[unused61]
[unused62]
[unused63]
[unused64]
[unused65]
[unused66]
[unused67]
[unused68]
[unused69]
[unused70]
[unused71]
[unused72]
[unused73]
[unused74]
[unused75]
[unused76]
[unused77]
[unused78]
[unused79]
[unused80]
[unused81]
[unused82]
[unused83]
[unused84]
[unused85]
[unused86]
[unused87]
[unused88]
[unused89]
[unused90]
[unused91]
[unused92]
[unused93]
[unused94]
[unused95]
[unused96]
[unused97]
[unused98]
[UNK]
[CLS]
[SEP]
[MASK]
[unused99]
[unused100]
[unused101]
[unused102]
[unused103]
[unused104]
[unused105]
[unused106]
[unused107]
[unused108]
[unused109]
[unused110]
[unused111]
[unused112]
[unused113]
[unused114]
[unused115]
[unused116]
[unused117]
[unused118]
[unused119]
[unused120]
[unused121]
[unused122]
[unused123]
[unused124]
[unused125]
[unused126]
[unused127]
[unused128]
[unused129]
[unused130]
[unused131]
[unused132]
[unused133]
[unused134]
[unused135]
[unused136]
[unused137]
[unused138]
[unused139]
[unused140]
[unused141]
[unused142]
[unused143]
[unused144]
[unused145]
[unused146]
[unused147]
[unused148]
[unused149]
[unused150]
[unused151]
[unused152]
[unused153]
[unused154]
[unused155]
[unused156]
[unused157]
[unused158]
[unused159]
[unused160]
[unused161]
[unused162]
[unused163]
[unused164]
[unused165]
[unused166]
[unused167]
[unused168]
[unused169]
[unused170]
[unused171]
[unused172]
[unused173]
[unused174]
[unused175]
[unused176]
[unused177]
[unused178]
[unused179]
[unused180]
[unused181]
[unused182]
[unused183]
[unused184]
[unused185]
[unused186]
[unused187]
[unused188]
[unused189]
[unused190]
[unused191]
[unused192]
[unused193]
[unused194]
[unused195]
[unused196]
[unused197]
[unused198]
[unused199]
[unused200]
[unused201]
[unused202]
[unused203]
[unused204]
[unused205]
[unused206]
[unused207]
[unused208]
[unused209]
[unused210]
[unused211]
[unused212]
[unused213]
[unused214]
[unused215]
[unused216]
[unused217]
[unused218]
[unused219]
[unused220]
[unused221]
[unused222]
[unused223]
[unused224]
[unused225]
[unused226]
[unused227]
[unused228]
[unused229]
[unused230]
[unused231]
[unused232]
[unused233]
[unused234]
[unused235]
[unused236]
[unused237]
[unused238]
[unused239]
[unused240]
[unused241]
[unused242]
[unused243]
[unused244]
[unused245]
[unused246]
[unused247]
[unused248]
[unused249]
[unused250]
[unused251]
[unused252]
[unused253]
[unused254]
[unused255]
[unused256]
[unused257]
[unused258]
[unused259]
[unused260]
[unused261]
[unused262]
[unused263]
[unused264]
[unused265]
[unused266]
[unused267]
[unused268]
[unused269]
[unused270]
[unused271]
[unused272]
[unused273]
[unused274]
[unused275]
[unused276]
[unused277]
[unused278]
[unused279]
[unused280]
[unused281]
[unused282]
[unused283]
[unused284]
[unused285]
[unused286]
[unused287]
[unused288]
[unused289]
[unused290]
[unused291]
[unused292]
[unused293]
[unused294]
[unused295]
[unused296]
[unused297]
[unused298]
[unused299]
[unused300]
[unused301]
[unused302]
[unused303]
[unused304]
[unused305]
[unused306]
[unused307]
[unused308]
[unused309]
[unused310]
[unused311]
[unused312]
[unused313]
[unused314]
[unused315]
[unused316]
[unused317]
[unused318]
[unused319]
[unused320]
[unused321]
[unused322]
[unused323]
[unused324]
[unused325]
[unused326]
[unused327]
[unused328]
[unused329]
[unused330]
[unused331]
[unused332]
[unused333]
[unused334]
[unused335]
[unused336]
[unused337]
[unused338]
[unused339]
[unused340]
[unused341]
[unused342]
[unused343]
[unused344]
[unused345]
[unused346]
[unused347]
[unused348]
[unused349]
[unused350]
[unused351]
[unused352]
[unused353]
[unused354]
[unused355]
[unused356]
[unused357]
[unused358]
[unused359]
[unused360]
[unused361]
[unused362]
[unused363]
[unused364]
[unused365]
[unused366]
[unused367]
[unused368]
[unused369]
[unused370]
[unused371]
[unused372]
[unused373]
[unused374]
[unused375]
[unused376]
[unused377]
[unused378]
[unused379]
[unused380]
[unused381]
[unused382]
[unused383]
[unused384]
[unused385]
[unused386]
[unused387]
[unused388]
[unused389]
[unused390]
[unused391]
[unused392]
[unused393]
[unused394]
[unused395]
[unused396]
[unused397]
[unused398]
[unused399]
[unused400]
[unused401]
[unused402]
[unused403]
[unused404]
[unused405]
[unused406]
[unused407]
[unused408]
[unused409]
[unused410]
[unused411]
[unused412]
[unused413]
[unused414]
[unused415]
[unused416]
[unused417]
[unused418]
[unused419]
[unused420]
[unused421]
[unused422]
[unused423]
[unused424]
[unused425]
[unused426]
[unused427]
[unused428]
[unused429]
[unused430]
[unused431]
[unused432]
[unused433]
[unused434]
[unused435]
[unused436]
[unused437]
[unused438]
[unused439]
[unused440]
[unused441]
[unused442]
[unused443]
[unused444]
[unused445]
[unused446]
[unused447]
[unused448]
[unused449]
[unused450]
[unused451]
[unused452]
[unused453]
[unused454]
[unused455]
[unused456]
[unused457]
[unused458]
[unused459]
[unused460]
[unused461]
[unused462]
[unused463]
[unused464]
[unused465]
[unused466]
[unused467]
[unused468]
[unused469]
[unused470]
[unused471]
[unused472]
[unused473]
[unused474]
[unused475]
[unused476]
[unused477]
[unused478]
[unused479]
[unused480]
[unused481]
[unused482]
[unused483]
[unused484]
[unused485]
[unused486]
[unused487]
[unused488]
[unused489]
[unused490]
[unused491]
[unused492]
[unused493]
[unused494]
[unused495]
[unused496]
[unused497]
[unused498]
[unused499]
[unused500]
[unused501]
[unused502]
[unused503]
[unused504]
[unused505]
[unused506]
[unused507]
[unused508]
[unused509]
[unused510]
[unused511]
[unused512]
[unused513]
[unused514]
[unused515]
[unused516]
[unused517]
[unused518]
[unused519]
[unused520]
[unused521]
[unused522]
[unused523]
[unused524]
[unused525]
[unused526]
[unused527]
[unused528]
[unused529]
[unused530]
[unused531]
[unused532]
[unused533]
[unused534]
[unused535]
[unused536]
[unused537]
[unused538]
[unused539]
[unused540]
[unused541]
[unused542]
[unused543]
[unused544]
[unused545]
[unused546]
[unused547]
[unused548]
[unused549]
[unused550]
[unused551]
[unused552]
[unused553]
[unused554]
[unused555]
[unused556]
[unused557]
[unused558]
[unused559]
[unused560]
[unused561]
[unused562]
[unused563]
[unused564]
[unused565]
[unused566]
[unused567]
[unused568]
[unused569]
[unused570]
[unused571]
[unused572]
[unused573]
[unused574]
[unused575]
[unused576]
[unused577]
[unused578]
[unused579]
[unused580]
[unused581]
[unused582]
[unused583]
[unused584]
[unused585]
[unused586]
[unused587]
[unused588]
[unused589]
[unused590]
[unused591]
[unused592]
[unused593]
[unused594]
[unused595]
[unused596]
[unused597]
[unused598]
[unused599]
[unused600]
[unused601]
[unused602]
[unused603]
[unused604]
[unused605]
[unused606]
[unused607]
[unused608]
[unused609]
[unused610]
[unused611]
[unused612]
[unused613]
[unused614]
[unused615]
[unused616]
[unused617]
[unused618]
[unused619]
[unused620]
[unused621]
[unused622]
[unused623]
[unused624]
[unused625]
[unused626]
[unused627]
[unused628]
[unused629]
[unused630]
[unused631]
[unused632]
[unused633]
[unused634]
[unused635]
[unused636]
[unused637]
[unused638]
[unused639]
[unused640]
[unused641]
[unused642]
[unused643]
[unused644]
[unused645]
[unused646]
[unused647]
[unused648]
[unused649]
[unused650]
[unused651]
[unused652]
[unused653]
[unused654]
[unused655]
[unused656]
[unused657]
[unused658]
[unused659]
[unused660]
[unused661]
[unused662]
[unused663]
[unused664]
[unused665]
[unused666]
[unused667]
[unused668]
[unused669]
[unused670]
[unused671]
[unused672]
[unused673]
[unused674]
[unused675]
[unused676]
[unused677]
[unused678]
[unused679]
[unused680]
[unused681]
[unused682]
[unused683]
[unused684]
[unused685]
[unused686]
[unused687]
[unused688]
[unused689]
[unused690]
[unused691]
[unused692]
[unused693]
[unused694]
[unused695]
[unused696]
[unused697]
[unused698]
[unused699]
[unused700]
[unused701]
[unused702]
[unused703]
[unused704]
[unused705]
[unused706]
[unused707]
[unused708]
[unused709]
[unused710]
[unused711]
[unused712]
[unused713]
[unused714]
[unused715]
[unused716]
[unused717]
[unused718]
[unused719]
[unused720]
[unused721]
[unused722]
[unused723]
[unused724]
[unused725]
[unused726]
[unused727]
[unused728]
[unused729]
[unused730]
[unused731]
[unused732]
[unused733]
[unused734]
[unused735]
[unused736]
[unused737]
[unused738]
[unused739]
[unused740]
[unused741]
[unused742]
[unused743]
[unused744]
[unused745]
[unused746]
[unused747]
[unused748]
[unused749]
[unused750]
[unused751]
[unused752]
[unused753]
[unused754]
[unused755]
[unused756]
[unused757]
[unused758]
[unused759]
[unused760]
[unused761]
[unused762]
[unused763]
[unused764]
[unused765]
[unused766]
[unused767]
[unused768]
[unused769]
[unused770]
[unused771]
[unused772]
[unused773]
[unused774]
[unused775]
[unused776]
[unused777]
[unused778]
[unused779]
[unused780]
[unused781]
[unused782]
[unused783]
[unused784]
[unused785]
[unused786]
[unused787]
[unused788]
[unused789]
[unused790]
[unused791]
[unused792]
[unused793]
[unused794]
[unused795]
[unused796]
[unused797]
[unused798]
[unused799]
[unused800]
[unused801]
[unused802]
[unused803]
[unused804]
[unused805]
[unused806]
[unused807]
[unused808]
[unused809]
[unused810]
[unused811]
[unused812]
[unused813]
[unused814]
[unused815]
[unused816]
[unused817]
[unused818]
[unused819]
[unused820]
[unused821]
[unused822]
[unused823]
[unused824]
[unused825]
[unused826]
[unused827]
[unused828]
[unused829]
[unused830]
[unused831]
[unused832]
[unused833]
[unused834]
[unused835]
[unused836]
[unused837]
[unused838]
[unused839]
[unused840]
[unused841]
[unused842]
[unused843]
[unused844]
[unused845]
[unused846]
[unused847]
[unused848]
[unused849]
[unused850]
[unused851]
[unused852]
[unused853]
[unused854]
[unused855]
[unused856]
[unused857]
[unused858]
[unused859]
[unused860]
[unused861]
[unused862]
[unused863]
[unused864]
[unused865]
[unused866]
[unused867]
[unused868]
[unused869]
[unused870]
[unused871]
[unused872]
[unused873]
[unused874]
[unused875]
[unused876]
[unused877]
[unused878]
[unused879]
[unused880]
[unused881]
[unused882]
[unused883]
[unused884]
[unused885]
[unused886]
[unused887]
[unused888]
[unused889]
[unused890]
[unused891]
[unused892]
[unused893]
[unused894]
[unused895]
[unused896]
[unused897]
[unused898]
[unused899]
[unused900]
[unused901]
[unused902]
[unused903]
[unused904]
[unused905]
[unused906]
[unused907]
[unused908]
[unused909]
[unused910]
[unused911]
[unused912]
[unused913]
[unused914]
[unused915]
[unused916]
[unused917]
[unused918]
[unused919]
[unused920]
[unused921]
[unused922]
[unused923]
[unused924]
[unused925]
[unused926]
[unused927]
[unused928]
[unused929]
[unused930]
[unused931]
[unused932]
[unused933]
[unused934]
[unused935]
[unused936]
[unused937]
[unused938]
[unused939]
[unused940]
[unused941]
[unused942]
[unused943]
[unused944]
[unused945]
[unused946]
[unused947]
[unused948]
[unused949]
[unused950]
[unused951]
[unused952]
[unused953]
[unused954]
[unused955]
[unused956]
[unused957]
[unused958]
[unused959]
[unused960]
[unused961]
[unused962]
[unused963]
[unused964]
[unused965]
[unused966]
[unused967]
[unused968]
[unused969]
[unused970]
[unused971]
[unused972]
[unused973]
[unused974]
[unused975]
[unused976]
[unused977]
[unused978]
[unused979]
[unused980]
[unused981]
[unused982]
[unused983]
[unused984]
[unused985]
[unused986]
[unused987]
[unused988]
[unused989]
[unused990]
[unused991]
[unused992]
[unused993]
je
##a
in
the
##e
i
##i
na
se
u
##o
da
v
of
##u
a
za
and
to
##s
##m
s
so
ki
su
##h
pa
ne
od
bi
The
o
##om
was
##ti
iz
z
is
tudi
po
##ih
on
do
for
##n
koji
će
as
ali
1
by
ni
with
##y
##d
##g
##ma
bo
##li
što
##l
kot
še
##t
##la
##ed
##jo
##ing
##na
##ga
te
kako
2
from
at
tako
##r
ga
V
##k
##ju
##ne
3
that
pri
##j
smo
In
##no
U
bilo
##ja
##ka
##te
nije
##je
##mo
his
##em
A
kao
sam
5
že
##ni
##er
lahko
bila
samo
an
##ov
4
##ega
biti
he
##im
quot
koje
Na
##ci
##ca
##c
med
##es
ili
ko
sve
were
6
tem
0
pred
##st
##v
godine
jih
si
are
koja
##mi
##ce
ima
##an
kar
or
bil
##nje
##en
##og
sa
bodo
which
##ke
##on
mu
mi
več
##ly
le
I
jer
it
He
S
više
##ima
10
##al
##lo
ob
##nja
##ta
8
naj
##le
To
7
bio
još
be
has
sta
also
20
sem
one
svoje
ter
nakon
vse
##ng
##ski
saj
leta
first
jo
zaradi
##A
zato
li
nam
It
30
bili
##ev
##sti
već
zbog
##oj
15
12
nas
had
##ki
Za
ljudi
000
##ve
9
če
treba
može
who
no
##nih
tri
their
ta
##va
##0
not
pod
New
11
No
##ko
##nu
but
dva
godina
##ra
dobro
nekaj
its
##ske
##1
ih
prvi
##ji
##ć
this
dana
tega
prije
her
Po
##ić
##O
uz
##us
##2
two
time
bez
bar
kada
dan
prema
oko
drugi
nego
zelo
##š
kaže
##5
have
ker
##ska
sicer
Ne
19
25
##iti
13
BiH
me
##ku
14
dok
##in
more
18
kad
bolj
##3
##ec
veliko
16
##nju
##ar
been
##S
##6
On
21
##7
##uje
rekao
##ion
##p
nisu
##č
##E
način
after
Če
##8
##z
##4
nekoliko
kjer
k
17
##sko
##C
jedan
O
mora
into
up
niso
##I
##9
##el
mogu
50
B
2006
protiv
##or
prav
posto
24
kuna
##io
##ost
tu
malo
22
ako
##ama
##da
##ak
amp
M
brez
im
kaj
other
svoj
D
23
danas
C
they
de
kod
let
namreč
vrijeme
druge
vedno
##ći
##ica
toga
proti
##ije
##P
##ah
##de
all
##se
film
del
##ry
over
##M
text
sada
niti
ti
njih
when
Z
gdje
##rs
ste
ja
ove
##osti
she
years
nema
Da
gre
out
Tako
##D
##vi
nad
koju
EU
##cu
This
pet
40
##man
##ili
year
about
dela
put
##x
2007
United
##re
##mu
only
new
##il
tome
radi
milijuna
100
##ila
##ati
Od
drugih
00
most
##K
American
svojim
strani
John
##th
##ers
oziroma
E
2008
pravi
taj
R
between
##ek
stranke
##T
can
zdaj
where
26
album
Kako
predvsem
kojima
danes
27
him
##w
##skih
##tion
used
part
##jem
vendar
28
vam
##ge
born
three
2005
člena
Hrvatskoj
Hrvatske
school
Pri
novi
2010
2004
made
there
during
##H
##R
Ali
World
2009
m
##sa
##ice
stranka
glede
##f
dr
would
University
##ton
##b
države
##ija
##nega
##kom
##imi
2011
neće
J
dio
##me
##ic
Slovenije
##ch
svi
2012
2000
nešto
čak
jim
nove
##ation
later
##to
##B
known
T
vseh
##ia
d
29
kojem
##ine
##L
prve
dvije
##co
K
team
then
leto
uvijek
31
##V
##nik
##ova
oni
e
celo
##nim
School
sodišče
##ina
Ko
G
Nakon
##ment
kojoj
##ha
under
##am
2013
She
##U
2001
P
Kot
##če
najbolj
posebno
koliko
##ena
vrlo
##et
delo
bile
tek
vas
L
York
program
##ri
novo
drugim
sati
##is
puno
čas
##G
Sloveniji
##um
F
2003
##nom
Hrvatska
##ac
##ie
##za
dalje
May
mesto
St
mogoče
između
toliko
svojih
onda
##F
through
HDZ
National
2002
some
being
population
well
Zato
imaju
name
season
became
naše
##či
##ty
preko
letih
##ća
TV
među
such
Ako
##ali
Ker
evrov
manj
people
gotovo
##Z
šest
##N
ćemo
stvari
##eni
času
while
than
area
##nt
South
Tudi
##ča
Ta
same
drugo
second
City
potem
svojo
Iz
imajo
N
njegov
##nog
H
60
njegova
2014
including
##ter
jasno
September
##ite
ji
Do
torej
prava
Ob
puta
bolje
After
As
t
njega
game
n
many
##ala
##vo
W
##di
nbsp
before
bomo
Med
##ent
prvo
##ana
svoju
skupaj
ona
35
zakona
##ts
##ove
želi
pravo
##ro
neki
2015
tom
March
##cima
State
kazao
jednom
država
##son
until
tijekom
##ao
##cija
odnosno
nato
August
##cije
West
##ami
War
played
series
potrebno
June
style
##anje
dve
##eno
##ijo
kroz
četiri
against
both
till
lani
##ey
work
broj
odstotkov
svih
##ted
County
There
San
October
center
released
joj
predsjednik
katerem
may
them
ju
ono
##ba
ovo
##ies
number
pomeni
##J
April
##ović
won
four
primeru
mjesto
problem
dni
vlada
January
časa
poput
##be
July
novih
teh
##ck
predsednik
##ist
deset
kateri
located
city
##ici
pol
All
45
ovaj
1999
Zagrebu
veliki
States
eno
ipak
res
song
katerih
ampak
end
2016
ponovno
upravo
seveda
vodi
sebe
##ive
Zagreb
dejal
December
II
skoraj
##ze
piše
jako
Je
##cev
život
90
back
North
delu
tko
list
##kov
manje
32
sva
letos
##uju
Ni
former
See
ništa
Ljubljana
several
Ivan
following
vremena
left
80
November
1998
Pa
align
##ya
##nem
200
tim
##ene
bit
His
US
Slovenija
band
svetu
doma
##nica
kraju
state
neke
dne
##os
##zi
##at
vsaj
will
##ru
sodišča
temu
##jte
letu
ime
called
##ik
zna
Sve
##lja
jedna
##njem
vsi
70
##ič
##ši
based
sami
##ate
##lu
vode
podlagi
rad
imamo
Še
##čno
##ovi
##as
League
imel
eura
okoli
riječ
prej
##skega
povedal
##tev
osoba
tolarjev
At
top
home
leti
također
milijonov
1991
morali
##tu
##do
govori
now
meni
##ity
High
razvoj
godinu
stopnje
baš
Le
station
IN
čeprav
mogao
They
##ša
Iako
precej
njegove
pitanje
tada
##vanje
1997
imati
mestu
strane
Park
For
Ja
mogli
##nice
sezone
##pa
mnogo
village
500
prostor
British
##sku
since
teško
David
##ble
##ting
primer
direktor
##ad
##anja
##ns
family
zadnjih
g
##skog
##ini
video
##iji
early
sebi
London
##du
33
svim
dveh
tam
show
tej
nič
##ur
dobili
1996
radio
povsem
en
mjesta
njegovo
svaki
imao
##si
Tu
La
##W
##su
line
high
##ir
sveta
February
##nost
ReferencesExternal
Peter
##jev
Što
imeli
skupine
STA
Pred
koncu
##der
##ava
36
##ški
place
RS
2017
##ću
trener
dovolj
vlade
music
##lje
sploh
Uz
International
member
Kad
last
use
did
1995
One
bude
##će
##X
najbolje
##stva
njim
##it
obitelji
local
James
naš
##pe
možda
these
njima
predstavlja
co
Mi
set
##nd
##go
##ian
34
##stvo
##še
group
##ley
slovenski
vsak
##vati
uprave
kojeg
velike
prva
stanje
nismo
##ilo
day
šele
druga
X
svijetu
##ani
single
iako
ovom
skladu
isto
off
posao
named
##enje
Robert
##vić
velika
nova
katero
projekt
per
nisam
žena
##nce
club
ću
štiri
znači
George
##ira
bih
katerega
long
37
life
zakon
naprej
1992
##že
ovog
##land
each
##ous
km
tisuća
pak
rada
trenutku
Tri
##den
odstotka
students
NA
1994
glavni
built
##čić
like
Dr
any
##ure
življenje
##ling
života
takrat
vi
št
Vse
##hi
English
sama
problema
moramo
final
College
##id
svet
Red
found
Cup
began
start
1990
priča
katere
postopku
kraja
River
podjetja
poti
##ika
reći
##era
sad
municipality
shift
01
Ljubljani
##čki
play
public
1993
38
minuta
zemlje
List
pogodbe
javnosti
pomoć
državi
##čni
century
##sta
često
town
njihove
car
Svi
ova
small
##ks
background
slučaju
pot
javno
However
##ujejo
company
##tor
otrok
##é
spet
možete
took
district
postoji
ZA
sto
ena
old
held
postopka
zvezi
mogla
##jući
živi
Dan
39
##cal
42
##ner
East
ZDA
##nosti
Europe
poleg
Prvi
along
##ču
igra
non
An
##ver
dobiti
vozila
svojega
vprašanje
rekla
hrvatski
##sh
41
##bo
##ara
##ant
najviše
Prav
another
##que
programa
side
SDP
Že
##skim
##ile
Samo
##ten
##nika
kljub
neka
##imo
red
slovenske
ljudje
son
drugega
system
kojim
Paul
naših
five
mene
##ber
government
Ti
Al
##way
##čke
German
čini
Air
##ster
make
re
www
##nici
projekta
pomoći
##les
Prema
vlasti
around
north
Vlada
received
razloga
##eli
##vanja
third
com
Nije
morda
minuti
##ss
died
48
njimi
##jen
policija
House
world
So
fontsize
##ari
jučer
Me
##tra
55
general
cilj
##eta
osim
imali
banke
Republike
moral
William
jednog
could
national
Naime
imela
De
original
##rt
dobila
##ger
tisoč
My
par
form
mjestu
posebej
##one
Michael
tog
Kada
##able
book
kraj
Novi
mesta
konec
44
igre
član
vrata
own
popular
due
god
mladih
##eva
##ane
##ler
kluba
model
published
down
utakmice
Martin
svom
total
Road
##ut
potpuno
stvar
velik
General
##skom
zajedno
##emu
05
near
43
##wa
vsem
možnosti
društva
djece
bom
čez
sigurno
približno
##age
300
jednu
smatra
##ža
##JE
post
družbe
naši
You
##enja
Osim
h
Te
p
##vu
svijeta
land
začetku
možemo
large
zašto
tvrdi
dobio
okviru
51
##ž
tih
French
take
##oma
svega
čim
grada
##rd
##ol
novac
include
moguće
main
best
osobe
members
Street
rast
##ića
##ona
##ls
medtem
##cy
uri
##ška
led
SE
##bu
odmah
District
nalazi
velja
##Y
hitro
##tar
boste
predsjednika
kojih
jedno
prostora
##ary
During
49
prvih
pravice
because
##kih
Roman
##jak
##ny
Best
stoji
career
football
war
niz
served
##ll
koristi
##ela
Tom
naslov
JE
##ness
morala
very
klub
dovoljno
##čna
nima
XS
nama
Toda
##čka
čega
treh
##bi
zapravo
sud
SAD
status
prvaka
njihova
nitko
Hrvatsku
still
Kao
dolazi
##vši
opet
njihov
major
Church
##čne
head
al
Gre
52
King
When
##ons
točke
dejavnosti
slovenskih
državni
zgolj
področju
##tic
##mer
right
naša
##dy
žene
pač
El
mjeseci
rock
Nova
minister
devet
skupina
području
hrvatske
Zakona
Club
title
pomoč
predsednika
rezultat
tisti
življenja
##ora
žele
ostali
zadnji
##ft
mnogi
oz
njemu
različnih
aktivnosti
Ovo
again
Man
##ško
##ds
moj
Her
hr
Pod
##od
##so
ministar
##ot
Poleg
47
Grand
začel
late
##tno
##pi
nikoli
75
teden
Vlade
##ste
Award
isti
Black
Ana
sin
kuće
ve
obzirom
##ške
svojem
##ži
Mr
##est
Love
##ček
included
odstavka
men
smrti
Most
vsako
ravno
Star
netko
oba
##cem
eden
player
building
##ham
težko
hkrati
##gu
##eti
version
odločitev
SP
hit
150
odnosu
children
čemu
##aj
Zbog
prvem
njegovi
misli
l
postala
1989
##he
##ho
##ino
SR
##tan
držav
present
vrste
svoji
igrača
Inter
man
sredstva
different
najprej
trebao
##her
##jena
zlasti
##aka
kdo
točk
##ford
##šta
javnost
včeraj
1981
la
visoko
Washington
within
##fe
run
Zaradi
hrvatskih
razlog
##sen
promet
sedam
came
By
##emo
go
Japan
46
njihovo
UK
record
With
Zagreba
svog
##ij
raditi
##jeni
##čen
dolgo
##fa
death
##ura
x
redu
##nji
##ier
##ical
##oli
##aca
south
##ff
mladi
prek
##ud
di
400
grad
From
##han
Charles
if
##ljivo
service
short
##ions
moved
Thomas
temveč
pomembno
just
tekmi
##oga
games
##lar
vjerojatno
European
sustav
moći
64
Pro
##ul
##ys
iza
Of
preveč
oči
daje
število
1988
novega
njegovih
air
house
field
Co
rata
osam
##iju
pogosto
knjige
##ico
ide
##van
##eg
America
politike
dati
##jan
##alo
morajo
težave
takoj
water
ovdje
mnenju
enega
Italian
age
##skem
53
NE
CD
Ben
super
tvrtke
njeno
Radio
trenutno
novog
možnost
65
knjiga
2018
Island
1986
period
znam
hotel
54
Music
račun
often
##hu
##RA
svojoj
prvom
prvič
Union
poslije
nekaterih
##ran
1987
country
Kaj
letni
trgu
njem
##by
moraju
##TI
Green
vidi
gradu
##KA
postopek
lako
Naj
full
Super
##vali
Čeprav
potom
next
mislim
posla
Championship
sistem
onih
dobre
PA
ha
male
Vol
izmed
težav
kažu
anti
bosta
##ard
položaj
First
bolezni
ćete
order
nedavno
imam
Sir
England
##ale
east
Ireland
vidjeti
skozi
father
03
##ee
##lju
community
role
Los
ministra
nje
Real
policije
##irati
doći
Group
dijete
##nti
went
##ea
njen
much
toda
odbora
igrati
what
velikih
pitanja
filma
dugo
dodatno
nosi
##ai
potrebe
dobil
KM
Vendar
Royal
prošle
France
tamo
##ial
Mark
##line
plan
ovih
57
Sam
začela
rok
organizacije
##ld
09
energije
milijona
##ReferencesExternal
region
dom
##ors
očitno
##LA
##ps
##per
56
konca
given
DA
godini
color
##men
##ding
##chi
##ata
##field
##stvu
začeli
društvo
##NA
live
ravni
level
njihovih
sezoni
##red
Go
##jih
##čan
07
produced
way
uopće
pola
ovoj
99
Res
history
novim
Milan
informacije
##ano
toj
species
stranki
six
##sto
stalno
voljo
SO
California
##šić
partner
kasnije
njej
##ual
58
site
doslej
##au
##ere
power
##ete
brzo
##oni
written
Gra
1980
pride
point
odlično
02
Maribor
##rati
kakor
festival
1971
nikad
jednostavno
04
production
kulture
določa
Film
drži
##ker
##lj
Prije
said
neko
light
59
1984
sklep
Hall
dobra
trebalo
odgovor
##dom
among
##JA
established
drugom
napad
milijarde
##đa
sat
##sing
##po
##ht
ran
očekuje
lige
##noj
##up
west
##gh
bolesti
##sed
##eri
Press
Is
##bar
Jan
om
hrvatskog
Lake
katerim
professional
##ovo
Š
President
##inu
močno
našem
refer
##gi
nisem
največ
Luka
become
##ore
Un
##ring
ženske
1985
##hip
support
church
razvoja
mali
PO
half
čovjek
http
Bio
##jeva
moglo
dolara
centra
korak
denarja
rade
junija
##NE
sata
tožena
election
barem
Center
ovu
naroda
education
95
story
dobi
bismo
star
slovensko
maja
various
jest
##len
06
##sel
##uri
##av
television
##rne
hrane
##ita
##rja
nikada
Ivana
Australia
Val
Ž
moje
podjetje
track
cesti
prvenstva
verjetno
62
prišlo
imala
tokrat
##ser
started
besedah
najbolji
prvega
predlog
##uti
stran
even
denar
građana
66
pravic
##ejo
voda
##ance
returned
Hrvatski
##ković
smislu
mjeseca
imena
sub
skupini
##icu
pre
organ
znova
ves
svijet
Marko
Miss
few
dobar
katerimi
con
India
odnos
These
Australian
##gar
škole
pogled
motor
b
uspelo
podatkov
##zen
##un
Se
however
Division
63
Tra
800
putem
Association
##berg
zadnjem
##nci
##tes
smrt
novca
##lin
##NI
vojne
Time
Er
##tom
##lla
Ma
cijeli
##žu
pove
times
zakaj
those
million
dneh
Festival
08
Top
Richard
Mislim
##ves
metara
##skoj
stanju
momčad
free
drugem
special
službe
##ess
recorded
premijer
Rock
zmago
##vno
Sun
jedne
mir
mediji
##čani
izvan
najmanj
art
Minister
##ue
postal
##čič
vrijednosti
skupnosti
Mac
Christian
slabo
novel
Van
Swiss
##zu
##krat
185
White
##val
women
vz
ure
zoper
##jeti
##elj
priče
komisije
Indian
international
veći
c
##ljiva
having
1983
tjedna
vo
primjer
every
Glede
opened
RH
##ated
72
##dar
slovenskega
##kar
win
control
vodo
##zo
open
Dinamo
##đe
sklopu
appeared
Jer
##GA
nudi
party
pravilno
We
road
tijela
##eve
Bar
brat
momčadi
premier
odbor
banka
184
##nes
##ei
Slovenijo
prof
##ola
##ye
class
Be
##ciji
created
Canada
hoće
##ori
##ct
moč
nov
djecu
čiji
izhaja
životu
lead
mogućnost
glas
Oni
##tal
prvenstvu
founded
kn
zemalja
izbora
Međutim
njihovi
joined
ostale
##nal
##ay
works
File
##res
##dno
ugovor
Bay
Igor
zadnje
round
ostala
metrov
##com
67
Grad
Bor
dodao
Council
##inja
sedaj
God
županije
ur
napraviti
Sea
##ajo
External
zdi
prišel
zemlji
Fi
Dok
##ciju
##ire
##cha
pokazala
Kar
development
61
prodaje
znak
Bilo
utakmica
djeca
ostati
married
1982
zaposlitvi
došao
Bill
osem
izbor
##sion
drugače
kojom
agencija
##šću
using
park
vlogo
stare
ističe
Mar
ceste
##á
##ning
sustava
Party
web
gu
see
auto
##eo
župan
##gen
##and
obeh
ostalo
sv
##nj
law
dijelu
##LI
Foto
Slo
Smith
Daniel
without
občine
vrsti
##ula
##ms
minute
septembra
##gan
prvog
izgleda
league
85
Evropi
znanja
riječi
op
slika
Ipak
##ese
##uk
enkrat
prihodnje
obitelj
1961
##lni
traži
bolji
met
podatke
nekateri
naravno
student
vezi
van
##enih
minut
otroci
##uli
želimo
Kljub
godinama
Gu
drug
ca
našim
##šek
Janez
##rni
para
oblasti
npr
##tt
utakmicu
Pu
blizu
Bra
position
EP
zaposlenih
stoletja
Ima
Nu
##del
svakom
vol
Big
##fer
mlade
izjavio
gol
tro
prednost
##ell
Art
similar
Other
fi
dosta
KO
1970
Joe
1st
našli
1972
##lt
ljude
navodi
1979
##ban
character
##tvi
območju
tiste
uro
postaje
prostoru
IZ
##stan
poziv
Army
napada
državne
worked
Frank
##che
##rije
stanja
##amo
vrednost
neza
plaća
SIT
social
skrbi
Taj
srednje
točno
obdobju
lista
politika
šole
##mar
prvenstvo
soboto
prometa
front
zadeve
business
director
Great
sredstev
ZPP
poslova
mid
Također
political
mar
enako
##sm
Central
71
ispred
Lu
Ante
Ver
unije
never
kmalu
povijesti
oktobra
language
du
##ade
playing
68
180
tožnik
Simon
Inc
white
obveznosti
Još
we
##ej
jezik
term
goal
1978
slučaj
znaju
match
ljudima
##ap
##ero
postao
proces
Cro
rezultate
91
##jene
love
##tvo
1976
Riječ
odgovornost
nekim
čemer
Mary
občina
lost
dnevno
Leta
javnih
Tor
kasneje
zahteva
poudaril
okrog
kući
Texas
svima
##lan
jpg
##nije
moja
##wood
Don
69
##ght
ku
bivši
ekipa
##des
trg
okolje
Court
razini
fire
##ljiv
##ang
Brown
važno
Y
##ljeno
##led
days
popolnoma
test
##ful
##tve
odnose
gospodarstva
Ku
##elo
either
ovim
does
##uta
želim
##xi
ostalih
##ren
event
##tek
donosi
uglavnom
stari
great
schools
aprila
Veliko
##har
trebala
odnosi
1000
odločbe
Ur
Japanese
1977
tekmo
##kog
trebali
Act
ten
Bob
##zem
77
šlo
Han
člen
PRI
dolarjev
člani
januarja
##ville
183
najveći
areas
Andrej
tijelo
Seveda
Vo
##ito
Football
body
pravico
kdaj
eni
Post
sedem
žive
Potem
prvak
roku
Records
Old
##san
##eje
človek
Company
73
##ü
##ron
njegovim
Up
##ral
##ven
Srbije
Some
Henry
postoje
##ō
ukupno
suda
Zdaj
Out
cm
novu
##ism
priliku
##jeno
Life
Jean
posljednjih
nekatere
working
himself
Blue
1974
tiče
vrednosti
Program
Tro
##koli
područja
##00
##ally
tretji
Drugi
domu
##NO
uspešno
completed
98
74
##adi
proizvoda
##anju
##sal
Saint
Bank
##ou
76
umjesto
nes
Radi
close
Josip
88
Mer
81
continued
istaknuo
##tle
MO
##ada
Novo
##ney
vodstvo
sodišču
dvorani
debut
78
postati
postane
zbor
spomin
current
nemaju
##tni
spremembe
##iva
studio
pravila
pozneje
čisto
podobno
##MA
krvi
250
nagrade
1975
Si
Prince
mesec
1945
help
Bro
BBC
value
##mal
komisija
Ed
jedino
##ved
dir
##čar
episode
odluka
##tva
##int
ostalim
##OR
common
Europske
njegovu
neposredno
##tte
rješenje
igrač
Bit
1973
##niki
podjetij
Os
Danas
##var
tržištu
sklepa
pravno
bank
Prvo
##lno
vrsta
lepo
##tov
sistema
##itev
yard
previše
delež
tema
pregled
zgodilo
vsega
##ord
making
zanima
dejansko
Zakon
79
večkrat
##LO
##tne
##out
njegovem
obzira
mnoge
wrote
##ranje
##lji
But
Već
vojni
##ote
##less
okvir
navaja
addition
Pos
##zer
narod
nadzor
Gar
##ó
rate
tistih
ma
cijena
##ivo
nu
petak
odluku
performed
Tour
wife
radu
bri
vojno
##čkog
odločbo
novembra
Ivo
dogovor
race
Day
##pet
Sada
##jši
loše
96
Hill
##nikov
buildings
Kr
žal
velikim
important
Year
vrhu
##ations
kratko
fe
##ö
##if
Mo
##fo
stroškov
Little
92
##ljen
val
##ljeni
rekli
decembra
Men
Northern
inter
dao
97
Canadian
##hal
zatim
##kova
sna
release
prijedlog
vsa
dvema
proračuna
mjesec
##tz
##are
ulici
project
##nic
86
originally
družba
hand
83
600
##ide
signed
Bu
teams
ranije
past
gradi
zveze
stop
priložnost
Tam
##ped
petek
##ans
Lee
djela
Gri
includes
available
##sis
ke
centru
ljubav
Long
sodelovanje
type
Cha
##ction
Sa
Li
Iran
Department
Mario
military
formed
Pra
gospodarstvo
ship
dejstvo
Tim
kola
points
marca
design
Route
##AN
##štvo
vprašanja
tr
##ship
##op
must
subotu
računa
##ele
##čević
Euro
93
Italiji
njo
black
##oro
nihče
##tro
Kara
##nimi
nekdanji
kri
you
ri
rat
##avi
višini
Ru
vrsto
via
poslovne
Sicer
##DA
##dra
inače
sector
Team
away
OD
##EM
though
Zoran
##JO
87
kojemu
Jack
početka
##lom
uspeh
Nad
Brazil
1951
##iranje
čeka
zakonu
dis
elected
pomaga
fotografije
Mc
##und
##ken
##nico
once
HNS
less
des
##RE
##ez
Ten
1968
##IH
većina
82
##iv
jedini
Koliko
Europi
obe
godišnji
Russian
februarja
##ben
gore
range
120
Catholic
včasih
rest
ostane
Us
njene
Boris
##acije
Joseph
Bi
##Č
currently
poraz
Per
Lo
lipnja
Ona
javne
agencije
office
Western
Sad
poslovanja
Di
itd
##lle
1969
##TE
svetovni
probleme
##RI
mogućnosti
nedeljo
igri
odgovara
temelji
razlogov
počeo
Naravno
84
##čnih
pass
Jones
should
dodal
tjedan
Gor
##šo
##zna
##nka
ligi
am
seven
postavlja
iznosi
##VI
budu
Moj
najmanje
događa
although
Kor
situacija
tekme
Ju
enem
vrati
uskoro
##čko
visoke
dali
##External
pomoči
plače
Kod
življenju
ze
sold
Two
##dan
songs
get
Ban
##use
sti
Son
killed
doba
##nski
##hy
##acija
MI
dosad
odluke
jezika
rezultati
further
dobrih
En
##dor
srca
VI
research
##burg
space
takav
tak
break
across
Ya
Hrvati
nazaj
Paris
Su
1936
Col
Mike
Dobro
##rn
govoriti
različne
construction
announced
Pr
Florida
Ve
Pan
##jet
young
vrh
pravne
Institute
koncert
considered
SA
##con
far
pogodbo
kazni
college
ka
Tel
Live
##evi
normal
mimo
ispod
private
Times
vina
uspjeh
together
followed
Sha
Track
result
nakup
Treba
poziva
Sta
##aja
želijo
promjene
Marija
others
Ka
Sti
OB
Danes
##ping
svoja
drugimi
##q
##sni
namen
mest
##ish
##ip
##gs
poslu
##hor
##eš
tedna
##ise
snage
vendarle
organizacija
programu
listi
featured
dobri
Port
susret
Petra
##yn
low
nastup
cijene
nastupa
kuća
Williams
Germany
While
un
night
##ovati
osjećaj
##ući
delavcev
povedala
platform
Mate
Lord
članica
y
moški
svibnja
##ris
naći
Var
rujna
##ljena
Final
Del
1967
##rno
klubu
Slovenci
utakmici
sredi
dogodilo
Sim
Fe
Education
##kan
Or
Chicago
And
TO
##rani
Mu
čaka
razvoju
##eda
uoči
njena
Land
##rat
pojasnil
neo
Les
Nema
Hrvatskog
##cs
početku
##nda
##ces
services
id
Rad
##ute
uporabo
predmet
očito
##time
##ome
##jenje
##net
ulogu
##VE
contract
korist
izjemno
Nato
real
prilikom
Q
stage
delovnega
Society
Kre
##10
večji
Jedan
##kim
učiniti
case
taken
ekipe
Du
večina
blago
##sha
naslova
državo
score
večer
seboj
lokalne
##ned
developed
format
pra
police
brother
odločil
gospodarske
##ovanje
##nar
sporazum
pop
lo
Louis
Gold
##IN
milijardi
##bon
##kle
prednosti
došlo
vratiti
rešitev
Bez
članova
Angeles
##LE
##ings
mandat
objašnjava
državnega
sent
bistveno
pitanju
features
Ce
##rna
Ha
znanosti
čelu
prenosi
good
koli
89
##isti
sina
ministrstvo
Virginia
94
budući
Ho
##bri
roke
pristup
Carl
trebaju
kandidat
III
vraća
##tin
LJUBLJANA
nekih
moči
##19
krize
Fer
##vih
stav
gradonačelnik
##nske
Bosne
##sch
##aju
znati
##sno
šport
##bra
r
živali
vlast
oseb
potrebna
pada
dejavnost
avto
deluje
daughter
##nov
govore
SI
##See
return
občini
Ci
2nd
##Ž
priprema
nedo
##jše
modern
iste
##lov
Kim
human
Kra
##tre
lice
spot
raste
milijun
kože
boje
Pennsylvania
China
spo
ruke
poli
službeno
RE
člana
uspješno
standard
kandidata
godišnje
##shi
česar
##vič
družbi
sasvim
Više
##ture
društvu
##ert
djelo
roka
štirih
winning
##TA
Dun
##rao
slovenska
otroke
Tomislav
Car
ši
tip
##evanje
celoti
Good
svakako
rekord
pesmi
##ther
##oo
##kon
navodno
ideja
Home
##njo
##lić
coach
Ca
wide
proizvodnje
UN
zaista
posebne
razliku
mož
##ljene
svake
eight
##ram
##nta
vin
sodbe
##house
kg
roman
vodja
gave
bat
900
razmerja
interes
denimo
Bol
##tri
pozornost
players
##lne
opreme
javni
julija
moram
Vladimir
##az
osnovne
fra
Brez
##pan
ovoga
##uo
##oka
##don
History
##ema
Maj
Line
##aš
ostaja
razmišlja
Bog
700
##ence
##eto
strong
pi
pilot
deli
broja
unutar
pomočjo
Ol
vasi
involved
Its
avtomobil
zaštitu
seat
prišli
noći
Va
Middle
početkom
interesa
News
tvrde
official
imate
130
prijatelji
Tru
##udi
##rom
SK
##ä
sur
poslovni
##CI
nastop
igral
finalu
delovno
ogled
According
poslovnih
metal
igrači
Dra
##ins
organizaciji
nujno
gri
Hajduk
građani
##lis
priznanje
##šen
##let
volje
primjerice
##rov
##town
besede
Bila
##ich
šef
Fin
##can
boja
1940
##pro
želja
akcije
Grada
stvarno
1941
how
events
##žni
dala
skupno
base
More
traje
bur
route
##žan
##eh
##ave
width
##all
takve
board
SS
hrvatskom
##fi
author
Province
Pi
##nil
Vis
##gon
največji
##nk
appointed
##ow
##pin
Ge
tisto
##cijo
mesecih
Shi
Hrvata
##dio
obraz
TE
Law
centar
Under
##sy
hard
Goran
##uz
Sv
zase
information
delovnih
Ministarstvo
Manchester
training
terenu
##šte
kajti
##jski
##ded
najboljši
finale
številne
boj
prvim
Možda
zagotovo
njihovim
finished
interest
državnih
Sho
onaj
Second
Lea
1960
##pu
tožene
automobila
added
##MO
Yu
Bre
mother
Stoga
##ično
članov
večje
Br
##port
prepričan
lastnik
KI
throughout
Dar
above
sutra
suradnji
nekako
Jim
1931
pokazali
Mad
##štva
škola
poznati
##lek
sme
##ivi
stoljeća
ponedjeljak
Scott
sredo
multi
zaštite
mandata
##bor
videti
sljedeće
državah
drugog
Steve
Spanish
voli
telo
sun
istraživanja
##sar
pas
months
filmu
Prva
Ova
##šič
##our
meri
nedjelju
dijela
seen
navedeno
181
largest
dođe
priču
##ret
zanj
posledica
dobiva
Young
Ovaj
guitar
predlaga
lakše
Since
replaced
##telji
ton
veliku
odlučio
čuti
##of
zemlja
postaja
veze
trening
najs
media
Nor
##kos
jaz
ba
##zma
ovi
normalno
##min
smije
kazala
Ste
stara
Sin
Bil
182
##par
prijatelja
novom
omogoča
Chris
1965
vojske
Early
##las
sport
novem
kan
pravzaprav
Although
glasova
unit
##well
rođen
##ill
uspio
njegovega
example
Will
sodelovanju
president
indi
##vaju
active
maj
##ging
ball
Bo
ugovora
net
Cor
trend
1964
članovi
delovanje
tedaj
Vin
1966
nacionalne
Franc
##vin
putu
snaga
Trump
Berlin
proračun
osnovi
hi
process
prijatelj
ak
srce
daleko
scored
quarter
DO
načrt
igrali
Light
Can
postupak
medal
##pt
Raz
##VA
zajednice
Wa
Cross
Chi
##đu
objavio
vozi
predstavnik
Spa
##ua
polu
Zašto
Sodišče
Academy
pret
obliki
Malo
tele
političke
razlike
primary
##ple
Sen
listopada
kolo
jednako
changed
nastavlja
festivala
110
##tions
zavod
owned
nju
Open
port
jednoj
pokazuje
fourth
Jar
##vet
##njak
bori
##rac
ožujka
##ep
siječnja
osebe
stroške
razmere
Fa
zlo
Sar
Ger
Dor
##gor
činjenica
network
Main
hip
Cu
##jša
data
##ških
strah
Dec
koriste
kakšno
##iše
##car
saw
SDS
šta
##ota
transport
nami
##jer
vozil
srpnja
radnika
pro
poručio
mini
Vas
##EN
##bin
Šu
odst
fact
planira
desetak
Over
Mari
##stic
size
osobno
pripada
dosegel
Brod
uprava
traže
puni
##mp
naslovom
mama
der
usually
odgovornosti
##ă
Sus
##eval
obdobje
Predsjednik
hrani
county
##vala
uporabi
deal
That
##CE
nada
##kla
odnosa
šoli
Night
1963
directed
zadovoljni
awarded
##zel
commercial
firm
hiše
Pop
ci
##slav
sodbo
prosinca
nepo
magazine
##ong
čovjeka
nista
ex
dober
central
Nikola
##yo
##ato
##ame
milijard
books
znanje
trade
pravijo
evropskih
##KO
##gel
##dni
predstavili
##šče
eventually
USA
Maria
##bet
prima
org
daleč
začne
provide
Pet
##ujemo
informacija
Ar
zdrav
river
Band
scene
outside
##čkih
##tna
prodaja
počela
mikro
##rano
počinje
Kan
success
Več
##ljive
ov
nastala
travnja
pobjedu
strank
rješenja
namesto
mol
zakonom
došli
Mus
##ljivi
##alno
številnih
Slovenski
Az
1921
##win
prišla
##mor
riječima
osvojio
remained
pen
mnenje
održati
##đi
predstavniki
Mali
##hin
vladi
sea
##CA
##uni
##kin
mesecev
Sat
singer
provodi
person
Show
Nove
##rali
ministrstva
isključivo
svetovnega
dodaje
Gro
Anton
##Q
##wn
temperature
sigurnosti
gra
Ram
poroča
Ministarstva
Bla
##vel
družine
sporočili
battle
##čku
policisti
Irish
##rski
##nc
politički
oblačno
Sur
dokaz
Evrope
vaše
Sto
##tić
##pp
Pogledajte
##mit
koga
au
##è
##zam
potrebne
Kon
slike
##gli
ustrezno
uporabe
Ad
OS
Jersey
okus
dejanja
##lec
able
Bur
ljubavi
njoj
nimajo
Let
natječaj
##alni
leading
average
##niji
Pun
Fra
va
storitev
dvo
competition
##rti
koncept
##pri
##bol
##ae
otroka
##elja
designed
MA
Dva
1962
1950
king
izborima
igrao
dvakrat
Rob
Policija
izvor
hotela
##sli
potrebuje
manager
Split
vodstvom
zahtjev
Vsi
runs
##oe
organi
RA
##pol
stoga
nagrada
kolu
edition
cast
Water
Nan
##irano
svojimi
Par
Hr
izgubil
vodil
vino
Spo
##isa
svakog
nav
material
study
senior
gosti
##vr
min
kupiti
##vanju
##una
čime
tekst
noge
1944
ru
človeka
četrtek
attack
##čkom
kulturno
Mas
vpliv
##hen
otvara
ab
Drago
doista
Sud
Las
##yl
##nder
plant
transfer
ra
svojom
provided
oblast
Yo
Ron
Mid
##iki
##eći
regular
Special
Para
str
performance
iznimno
hrvatska
Žal
Č
osvojila
održava
Ro
odpoved
igro
točka
Ye
##čem
čine
obstaja
length
izgubili
centre
tožeča
Zi
##telj
peti
dal
Veliki
##ses
##ovima
segment
##ike
##esi
predstavil
koristiti
Ot
Mor
shows
početak
dolaze
ver
et
court
If
Director
Che
##zni
svemu
##niti
veseli
Am
##zed
vozilo
Railway
BI
writer
Fu
objavila
Tony
trenutačno
Ivica
##nan
island
Izrael
##Š
##ein
zdravje
pozna
ostaje
krog
##í
cene
Play
Pen
neu
javlja
dogaja
Koper
vrat
bodova
##over
##anu
kamen
gold
##janje
##dne
staro
ameriški
Ren
Ili
Lin
Evropske
razdoblju
##pat
vir
pobjede
kršitev
čast
končno
Tko
Sports
##gom
stan
doprinos
Max
##ky
svaka
notranje
Town
Force
Ken
##šča
Far
##alj
sla
Bel
Kingdom
##ward
##vijo
našega
portal
ići
Vr
Eric
##šnje
elektro
Not
Ču
tvrtki
majka
##bs
##gy
ad
Jože
Il
petih
miru
zadeva
FI
Boy
radni
pad
##šči
nepri
Auto
##iri
secondary
##sse
reported
knjigo
##ties
protu
posameznih
##vao
##tori
##ević
varstvo
reprezentacije
kadar
Fort
DE
Bri
##aci
volitvah
kje
Mnogi
Hotel
Har
rekel
Damir
##ssa
pripravili
Rome
Anti
##mon
razred
pismo
otac
nekom
izredno
lik
Mag
upon
##vima
ruku
pravni
##TO
primerih
news
##ros
##ida
Čak
drago
Edward
drama
Sand
independent
##oda
##ok
obrane
Wolf
##we
postali
plačilo
Re
##TV
##oto
##nis
odločili
naime
kažejo
Major
##DI
skrb
##ont
described
AM
##čo
Hercegovine
tožbo
sje
mala
##cit
##cer
ostal
Monte
##zan
izda
Der
##odi
vlasnik
bol
##veni
too
##ern
ostao
##ob
##išče
vijeća
izgled
Ono
vem
varnost
collection
Srbiji
Bad
Hot
1901
##tha
državno
below
Ze
##tis
roko
Bandić
##hol
individual
##jom
##jati
javnega
grand
Pur
CR
3rd
trans
slu
Predsednik
Dol
oče
današnji
uradni
gospodarski
Ph
pokazati
kupa
##ged
dakle
Wales
Ul
srijedu
Raj
Mariboru
izziv
##ign
Valley
Evo
##vid
Željko
sum
sister
četvrtak
treći
##ssi
##gal
ženska
mogel
change
bavi
Ex
udruga
sports
campaign
Miha
pronaći
našeg
mark
iznad
##šu
podporo
znamo
trije
1959
##grad
##back
primerjavi
ce
aircraft
##RO
udruge
reda
Boston
vpliva
Ki
successful
section
nekoč
dobit
Milanović
##iš
upravlja
invalid
come
Pol
Mart
##rin
##day
uspjeli
Power
##jni
##jejo
Head
Bridge
##ule
premalo
acc
Chinese
preteklosti
loss
hospital
bus
summer
##gue
modela
Stra
Mamić
Junior
priložnosti
Dom
Davor
##rjev
zadevi
iskustvo
vso
delnic
vzrok
obisk
Tur
Baj
kilometrov
Pre
zdravstveno
dol
Oz
tuje
poteka
Africa
##ovih
tečaj
ene
child
##ular
##osa
Male
vaš
attended
170
##wi
sklad
njezin
izazov
1911
##ments
Book
##rie
posljednje
northern
imeti
##oti
##llo
poseg
Republic
Chart
##ub
##ory
##ab
Museum
vrijednost
##lic
##šnji
##jima
##een
pogoje
championship
##aši
turn
nogomet
Sla
market
sposobnosti
avgusta
##art
preprosto
napravi
Tan
ponedeljek
##jsko
prodajo
Ut
Nisam
Castle
Bush
uči
serija
brojne
členu
višje
utorak
boljše
Madrid
End
voice
parts
Velika
Awards
fall
Greek
##cama
unatoč
ugotovili
pris
ground
akcija
Tar
Phil
Mis
Fire
##lit
tik
ac
tra
Naš
tour
mirno
African
##DE
pozitivno
##ivanje
##cle
talent
##11
##uka
ugotavlja
##gin
FM
lower
##iča
dodatne
Upravo
žrtve
sudu
nepre
agent
završio
ro
pokazalo
Rus
Novak
Fo
virus
recimo
plač
temelju
voznik
Plenković
Lewis
Ber
##rio
stres
##škega
##king
poslovanje
Wind
Tijekom
regiji
personal
PU
##ovali
zavi
ever
Mora
##eu
uzima
vseeno
hrvatskim
desno
1948
##vna
##dal
signal
Wood
Bak
sr
##yan
osnova
Pad
##koj
sc
nadaljevanju
glavo
fo
##som
##enu
nor
##irao
najavio
glavi
Santa
znano
plaće
Brad
##OV
##nac
##evo
ulje
edini
prati
načina
##nca
pokušava
meje
Bon
##oval
western
reached
almost
Dre
##uma
spremni
mm
##AR
zaključio
redno
ministrstvu
forces
dvoje
##ado
gor
mr
Og
Down
##rta
##wan
znatno
zdravstvene
spominja
KA
Battle
morejo
highway
cross
semi
lived
capital
broadcast
##usa
Među
##mel
serije
gori
##tel
##lon
podatkih
oseba
Jr
report
smatraju
politično
mjere
jeseni
Mel
Kup
CA
##án
##act
province
goals
Dakle
Civil
1943
##nke
##ef
slično
resnici
got
editor
Series
Karl
##ljenje
podataka
natural
manji
Ča
kome
institucija
##vni
my
stvara
broju
##din
leg
famous
budućnosti
alkohola
NI
vrnil
nos
tvrtka
Pakistan
Celje
Board
##rka
##iz
southern
seji
njihovu
konačno
Donald
una
traditional
Neki
Isto
##KE
##opi
zemljama
veljače
Chief
češ
direktorja
branitelja
Ri
Premier
vremenu
oblika
najčešće
##ZA
vlak
roditelji
njeni
Avenue
##kli
writing
lijepo
introduced
Ok
##ress
##zor
dnevni
vozač
poznato
Splitu
Ford
vidim
projekti
najbrž
Government
DVD
##ijan
Sub
##esa
vstop
slijedi
naziv
sporazuma
Sara
NY
Hor
zvečer
sjedi
področja
objekt
liga
Congress
1958
##oja
ljeto
br
Public
Angel
##tak
##ras
##lli
zdravlje
Morda
##ER
##rane
polno
additional
##MI
##top
biste
razen
bass
##20
##set
civil
SC
dvor
##teri
tzv
procesu
Johnson
uporablja
referendum
pe
prvu
dnevi
Inače
Ala
š
grade
Zu
Summer
Fen
food
sit
prihaja
opozoril
nasilja
kolikor
##tet
sila
prinaša
krogu
dokler
Ter
##jske
zunaj
raznih
nagrado
##zin
preden
Večernji
strip
##eka
temi
cons
1957
179
##BA
##nija
##ješ
railway
nastaviti
kojega
ski
govor
vide
Leon
Bosni
smr
slovenskem
running
access
Andrew
##ON
Later
tj
step
službi
razmer
prvoj
practice
Antonio
prosvjed
Die
##wer
rasti
počne
mine
izvoz
Des
##log
Soviet
FBiH
želel
Sr
NATO
sprejel
prošlo
Queen
##idi
različitih
automobil
Mak
Au
1956
rasta
praznik
pr
onima
odstavek
drugu
dog
boljši
bazen
čl
zdravnik
##fu
neku
kam
kakav
140
upravljanje
starih
PS
Service
meso
kap
Fred
##tru
##jali
##ake
previous
##cher
veće
sekretar
nev
##ole
vrst
počeli
Gi
proizvodi
##oa
##azi
sli
jeziku
Pat
##rji
šola
cover
Stephen
Eli
##rica
obje
hudo
f
##šan
##mir
whose
room
Rim
Medtem
Ke
##zno
znali
najpo
mesa
njenih
Pla
1946
##ew
foto
evropske
border
##dre
shot
rights
pan
least
label
Stan
Jo
zavoda
Tre
##ugh
finala
1939
programi
placed
mnogih
##kić
riješiti
movement
health
ed
##â
##ranja
vsaki
sredstava
sezona
odmor
Championships
##žno
cost
kakšen
dejanje
##uda
scenarij
kapetan
izid
SD
upo
Tin
Media
JA
##а
prilika
podršku
institucije
Women
Branko
1947
posve
##pen
##nović
policiji
nalaze
istraživanje
Hol
1955
Shar
Arts
week
profesor
prave
običajno
hrano
decided
##qua
gola
takšno
self
##čaj
##kup
živ
trga
Science
Mon
naslednji
evropski
Njegov
rib
producer
key
Station
Ash
ven
Lahko
zabio
stik
rečeno
pripravljen
predstave
groups
defeated
otkriva
vocals
itself
zatvora
torek
razpis
Josipović
##uj
##gate
susreta
plu
jam
Velike
Cho
##tira
closed
##ejši
sporočil
oblikoval
month
little
Alexander
##zil
raka
međutim
##letni
teže
slav
nekog
mode
kontakt
izgubila
##jin
položaja
dvoboj
procesa
##iku
##ator
##itve
čaj
##olo
regional
##IS
##šnja
Tol
Jugoslavije
sre
Op
spava
Nekateri
Lei
##dri
##dge
svakodnevno
sezono
projektu
pit
ml
higher
Stadium
Net
##lič
upravi
tv
prevoz
##12
##vlja
servis
izjave
employed
Portugal
##gne
smeri
mal
Mladen
točki
award
Zo
##ming
večinoma
tournament
listed
Srbija
končal
ZDR
Facebook
##ult
ujutro
pripreme
mijenja
date
##vara
Nas
Mir
nine
kakšne
njezina
musical
Jackson
1949
##ejše
uvod
osobito
nado
delovanja
##nia
zraka
bitno
beginning
tracks
položaju
face
delom
Carolina
Av
umor
indeks
Kos
Italy
##ria
previously
prejšnji
Vsak
Ned
Kur
350
##ens
takes
supruga
division
##rje
simbol
pokazao
##uro
##nte
vr
look
fazi
Mur
##stjo
##lly
žalost
sound
pomen
##ljan
##erg
##ace
domov
cena
Rok
##šno
trgovine
science
entire
##omi
##ph
razlika
mreže
don
##žen
##vis
##ort
Committee
brought
BO
1952
svetovno
stil
keep
politične
1942
proizvod
prejel
natančno
izbore
Tada
##tti
obveza
neto
Slovenska
##logy
vsakem
posljedica
Cel
zahvaljujući
parlament
imenom
družbo
bal
Four
zahtevek
izlet
Lim
tank
av
Vir
velikog
goste
Pret
##ath
skupni
priznati
dance
Hai
##ME
podi
host
ceno
Miš
disa
behind
Londonu
hoteli
generacije
##bel
reforme
Jane
umrl
grupe
ceni
Srbi
premijera
historical
sodi
predstavnika
kategoriji
1953
done
care
Tha
Rusija
screen
ruž
cesta
##tta
##nie
##nicu
##ndi
soon
kilometara
glave
Mexico
Oba
zama
Met
##wo
ples
pita
bira
##Ma
natjecanja
NBA
##rz
chart
##zije
poudarja
opremljen
izbori
##čeni
Cer
##đen
##deset
san
območje
Southern
NO
Gori
odločitve
odloči
napravio
Sel
har
command
škodo
pu
našu
drugoj
##IL
##yu
##ista
##osi
čisti
sko
ended
dot
Wall
countries
##ivati
skok
related
jazz
prenos
odve
nagradu
boju
Three
Rat
Kovač
1954
##stran
neob
letošnji
ME
Ljubljane
##emi
find
socialno
##xe
##ične
##ast
napisao
končan
Gr
vikend
##VO
pripravi
camp
večino
liste
allowed
Ser
izdelkov
films
Rose
Ly
FA
Dave
##zija
šolo
pravu
ovako
Dragan
Camp
istom
Bull
moralo
Harry
Albert
Maja
Hi
Cal
zadnja
vidio
razreda
našoj
nalog
instead
požar
opo
Kol
niste
##iziran
urban
kolega
##ex
kapital
ge
block
Petrov
##cen
##bre
prepo
kulturne
autobus
##oba
mjeri
brand
tehnologije
##ug
ista
box
Hal
##ČE
zagotavlja
channel
namerava
Kri
##ćeni
##ime
obu
hiši
želje
zjutraj
zdravi
el
Hand
##kel
Ši
veza
papir
paket
mission
dobrim
tržište
predo
pomemben
pogoji
medije
kolovoza
engine
##sts
##ični
storitve
gledati
Pres
usluga
projekte
izreka
glavna
Matt
IS
##omet
##mes
tax
izbornik
Ara
počasi
ideje
Tele
Stone
prometu
grupa
degree
Theatre
Posebno
##cation
states
napadu
medija
malce
Zelo
zgodi
sal
kazen
blog
artist
Hu
pobjeda
AC
sprejem
##GO
##enci
početi
organization
mladin
menda
Vi
Ustav
Bell
možeš
malih
160
morao
Latin
##ā
rather
pored
Mont
Len
sanacij
Bag
##rus
##pla
čita
##zy
##rst
##avanje
nasprotju
iskustva
bad
Rado
zajednički
female
call
Win
Gen
Francisco
začetka
obično
nep
najboljih
mišljenje
Francis
##jar
parlamentu
PRO
##irali
##for
##asi
sprememb
poslan
pojav
Part
##žal
##its
izraz
Mik
##enti
članice
mjera
chief
Zealand
Jose
##ws
zajednica
določbe
ble
##ktor
Marc
##uto
##mac
##etni
htio
action
Sydney
družina
##PA
uvjetima
tenis
svetovnem
Ani
##lna
BC
##šni
##arja
upper
Takrat
Por
Kat
##eld
telefon
sile
brod
Zna
Den
##JU
zmaga
taking
situacije
priznal
##nuo
redovito
incident
gen
double
travel
stol
means
act
Spain
Jur
rado
dovoljenja
##kovi
wa
Marin
##ric
##ovič
future
contains
Glas
##une
tožeče
leaving
školu
Research
##ED
videli
predstavi
kulturo
Run
##ology
prevelik
podatki
Pil
ujedno
srečanje
separate
informacij
sometimes
lažje
Davis
##rg
##jal
##eč
plus
letom
kruh
imenu
Mesić
##AM
##ket
##dle
svaku
skupino
poskus
ponos
cu
##čica
##enim
morati
Jedna
##mann
skriva
retired
operated
začetek
wi
radova
prehod
najde
internet
fort
eastern
appearance
industry
Scottish
ša
pogodba
Your
##vne
##lam
plays
osjeća
Pon
HRT
##đeno
usluge
##ect
volim
ponudi
područje
euro
Ty
kakvo
budućnost
##ants
trip
tok
dia
Uni
Ele
opis
došla
Sor
Heart
##evanja
utjecaj
turizma
ruski
oda
living
clear
People
Fair
Niko
##jera
##cho
highest
economic
FC
delno
Div
situaciji
cijele
Božić
zlato
recording
pomembna
misle
Wild
HA
##tors
voditelj
spent
pretežno
dejanj
cijeni
approximately
Turk
Journal
##cc
upravičen
novinar
fun
Mala
vsemi
uporabljajo
lu
##vic
##lia
turnir
skupnost
politiki
aktivno
Meni
Lau
##ssion
razne
parlamenta
##ST
featuring
dar
Kal
##mic
upravni
sanja
opozarja
Ari
Ale
postavili
gospodarsko
Patrick
whom
teme
starosti
razmerje
imenuje
##urs
želite
recept
plačila
meta
leader
Tr
##rana
##oru
Field
trenutak
solo
medijima
Game
školi
tradicionalno
praktično
pogotovo
dam
Sanader
##ude
systems
opravil
meeting
Cra
##tio
##jenja
sav
Italije
##jemo
posjet
RTV
Bat
##juje
dosegli
argument
politiku
pogon
Scotland
Nekaj
##jenih
ovisi
odločila
glasa
Mount
Ah
##oči
##nić
possible
navijači
morate
domače
##lat
##ents
kulturni
Plan
Modrić
osvojil
spi
online
nazadnje
domači
Stro
Oxford
študent
diljem
##jd
usta
Mili
##los
zaplet
pusti
ponaša
Born
Baš
##kra
najo
lokalnih
complete
Social
Cat
##ovića
##aki
programs
nena
količina
bolezen
178
##ón
##war
##ust
##sla
nacionalno
Georgia
farm
cvet
Ub
##nec
spis
##pis
##dia
staff
izdajo
##kh
zbora
sigurnost
promi
##rel
takšne
seks
podjetju
Kas
##pil
zemlju
prera
krajev
zaposleni
raje
Ec
Dis
##cio
sil
igru
##rske
podpis
zrak
vojska
teren
pokaže
pjesme
dijeli
okolja
Njegova
##dit
structure
promocij
posebnim
določb
cut
Slovenske
Senior
termin
sedež
Saj
Ray
Hercegovini
##ovan
Shan
Rijeka
Ra
Fle
##tima
vratio
mil
gradnjo
federal
VE
Dro
BA
či
tukaj
slo
prior
pregleda
otišao
Svoj
Mai
Alt
##isto
pripravlja
opening
numerous
especially
Miami
Brian
##čih
##get
##cent
Hospital
Creek
##tas
##nts
##о
LA
##tje
##sor
valja
prošlog
podr
extra
europskih
Sem
Pe
Mal
Golden
##ovu
##ički
mail
bed
What
##the
##jeve
middle
politician
Lok
101
##50
škode
zgodovini
tur
samog
problemi
operations
ljubezni
kre
dodaja
course
1881
ponuja
ponudbo
Tak
Dutch
##ston
protest
Mountain
##ui
zada
odgovorni
kakovost
Njemačkoj
AN
##raz
ulice
location
isplati
fotografija
dodatnih
Nick
črno
AS
##riti
zvijezda
sodnik
pristop
pogovor
gradnje
bolnici
##lnik
##diti
stroj
pogleda
kuha
Mes
##nge
##my
zadovoljstvo
decision
actor
Point
rob
regije
ravnatelj
občutek
luk
dolga
##jela
vole
videl
poslovno
pjeva
noč
Mostar
Koz
issue
Problem
##yer
mag
jutri
Rod
##žne
storil
1930
##Co
nobene
najveće
metra
ljubljanski
kratkim
kak
Ski
Mol
ured
našo
branil
Lou
Ak
ponekad
mati
dogoditi
voditi
victory
politiko
Wi
Ros
Filip
vele
nekdanje
Tomaž
##sna
vožnje
predstava
Kai
177
##kes
suradnju
##arni
znao
var
Može
Bou
##jes
##irani
##ijem
##hte
čija
zrakoplov
und
sadržaj
relationship
porab
mentioned
Vladi
Najprej
GO
snovi
ratu
Adam
##jim
najboljše
money
donijeti
urad
sod
pres
lov
listu
bridge
Putin
Gorica
Commission
##nad
##jav
##ars
vsebuje
razlaga
SM
Parliament
Njihov
##rala
##ode
takva
eks
Zap
Neka
Lani
zapis
Dark
##đan
##kal
##aša
svoga
odlučili
arhiv
Pir
##šlja
##liti
##gg
službeni
reference
kuću
##ulo
Philadelphia
Pacific
##DO
##gra
ozbiljno
otići
Ir
##nen
##kega
records
prihodnosti
geo
cars
daju
##ries
čije
tekma
pote
Cre
##čiti
zaprt
##jat
zapustil
tre
covered
complex
cijelu
Es
nikakor
Alex
##IK
nogometne
management
Vil
CO
##chen
žar
posamezne
konferenci
iznos
give
Business
##side
človekovih
trgovina
seznam
odgoj
depo
cli
##rič
strana
sol
programe
građanima
Nov
Bos
##med
##jun
##eat
vratar
force
##sil
večeri
velikom
Sport
Many
postavil
glasbe
generally
OP
Kru
Fla
Bir
##vod
znaša
savjet
cat
ST
1861
##šti
##ač
zahteve
nekdo
municipalities
kapitala
dejala
Image
##rij
uses
stal
Oc
Master
##zd
vs
stavlja
represented
potvrdio
potekal
annual
Centre
uradno
prometne
primerno
namijenjen
PRE
želio
required
pronađen
ljubi
avtobus
Wil
1937
vrijedi
stranko
leži
korisnika
boji
bitk
zapa
noć
letnik
Sut
Liverpool
##pov
##ede
prosti
območja
ho
datum
Kun
Gol
##ond
tretje
create
##lica
##itet
##ball
stations
##yt
##nite
##už
žensk
šteje
ulaz
starši
površine
poprav
odlazi
foot
##čev
##bal
prid
količine
igrače
##žo
Či
muzej
kilograma
Min
IV
Clo
##jeg
imenovan
iduće
Mah
Bru
##ači
workers
nekoga
move
išče
Mirko
Fran
sponzor
increase
financija
1938
##nzi
##ičar
##aga
Ša
opr
bu
##eči
zas
Gorici
##čnega
##ril
##ament
vsekakor
pohod
znotraj
pisatelj
meja
gleda
bivšeg
##work
tujini
serve
ome
Sol
##raj
##hes
stanovanj
residents
##pur
##ington
volume
prošli
promjena
##OM
##vor
resno
here
borbi
Horvat
Alan
##jeli
Jaz
##tr
sprejema
soli
electric
##zira
##bility
družino
SL
veteran
Song
Mladi
##hat
##ach
postavi
Vz
CE
##ase
svjetskog
provides
naju
Sarajevu
Non
Marjan
Dinama
ulja
dosti
cen
Lady
##nin
##iga
spa
pin
osvaja
disp
account
Pom
številni
view
appears
Taylor
Beogradu
##zne
##ind
spada
posledice
okr
chi
Bojan
##US
##sk
les
južno
Modern
##mur
##more
##lf
avtocest
MP
##zv
##vim
Pot
Coast
##iran
proizvode
Ove
Ba
##shire
##rl
##njima
ustavno
uključujući
speed
potporu
newspaper
lasti
djeci
attempt
Kevin
##oje
traja
postalo
moderni
jesu
fight
Nak
mostly
hladno
cor
britanski
Hong
Hit
175
##žite
točko
mom
Navy
Doma
##raju
names
kom
hišo
evo
##aza
urednik
pla
odstavku
izkušnje
izgubio
imp
dokazi
Obra
##vil
zasad
volitve
trideset
promijeniti
gospod
##rm
##klo
zdravo
ekipo
događaja
1900
sprem
prazni
osnovni
obravnava
nepremičnin
dnevnik
Billboard
##ges
##ffe
zapisal
pes
oblik
majic
dogodi
brani
Rusiji
Neo
udar
sle
ras
pritožbo
popis
napade
kontra
dneva
Following
##sat
##anj
stručnjaci
nastopa
feature
bla
Kosor
Fox
##nuti
##lci
prit
otvoreno
nafte
##nga
čin
zaštiti
praksi
junior
Villa
Last
woman
organizira
Kap
##tive
today
lokalno
Office
Matjaž
Kir
Italija
##nne
zares
distribution
Luke
služi
Juri
Are
##aw
večjo
funkcionira
Glavni
Fri
takvo
sprejeli
krat
Ves
šol
units
remi
remains
prodaju
dokaza
Gun
Get
##zing
##oc
pose
##jed
stališče
predstavila
kon
Sko
##air
dosega
zgodba
stigao
naslednje
las
##vom
spre
povijest
obrani
focus
Cambridge
Apple
žensko
vprašal
um
podržava
krajem
Switzerland
Svet
##cin
prijelaz
##uh
##ag
bre
Zakaj
Projekt
Free
##ščen
financira
bin
proglašen
dokument
dobije
##jajo
##ib
##gle
razgovor
popoldne
kor
kandidati
Video
Tren
##esti
vidimo
srečo
ok
department
pokazuju
Marine
##nsko
##als
zmanjšal
večjih
režim
naziva
Voj
KS
Att
##sb
##niku
zavr
northeast
Sod
Ran
Beach
Bayern
186
##OL
ču
vodu
sledi
slave
projekata
političkih
master
letnega
glavno
AD
##xa
##ung
##nska
##jevi
parish
uhićen
pal
Lor
Earth
živo
pomo
koalicije
biskup
AP
socialne
pruža
opremo
dopolnil
Health
specific
naglasio
Gas
Ga
Christ
125
##ČA
##tine
trenera
imenoval
Zam
Captain
CS
##tem
slavi
##RN
zgrade
tower
predvideva
osobi
##štvu
visok
djeluje
Zar
Columbia
##DN
Šte
publici
colspan
TA
Mara
Hy
##nko
##af
thought
polovici
limit
##rp
##hn
IT
zagrebački
narediti
gray
Hus
Gall
podacima
komaj
Cou
Cilj
Ai
##SE
trdi
aut
Ang
##row
##oci
##cti
očekivati
naredil
Kate
Et
pripravljeni
nizu
ljeta
subs
nadaljuje
stanovnika
pričakuje
nastopil
Deb
Bas
takšnih
prijeti
nadam
movie
Jay
##itu
university
better
##iro
pokriva
naloga
individuals
Ori
##KI
uvjeren
posljednji
Naša
Jeff
##šten
sestra
seminar
nadaljeval
Stu
##kri
časom
thus
svjetski
rizik
prodaji
Ple
##tih
##ain
dodala
Hard
##eme
slab
property
granice
Sant
##tur
read
prevzel
nemški
medicine
Gali
##čnik
##stre
prihajajo
manjka
korištenje
vplival
uvjete
poslove
gas
appearances
##ćen
##nav
všeč
situaciju
function
Gab
Delo
##voj
##najst
sjednici
potrdil
poet
1920
##stro
##ntr
premoženja
native
mo
Tožena
Jud
##tia
##oč
##asa
instrument
##RT
##oš
##mat
##cil
zeleni
organa
manjše
##mark
##ešk
##aro
continues
Sy
znani
vanjskih
Internet
How
Anna
##pot
##dje
rješava
glavne
zamisli
store
significant
che
Olympic
Martina
##chu
prostore
Sri
živjeti
stranici
pay
općine
experience
disk
bomb
Parizu
Hans
temple
slobodno
rub
Order
pomaže
def
Toronto
Ig
Bea
##head
vidjeli
tremi
##sf
##bas
ust
concern
borders
boli
##cing
sveti
pokal
height
enote
določen
davčne
Highway
##rit
pun
hours
DZ
1918
##tka
##kor
##kins
##ious
veća
uživa
udeležil
mnenja
Duke
##BI
zastupnika
strokovno
donio
ćeš
začelo
settlement
lab
javnog
digital
Like
Ji
##AS
##đenje
##ksi
odziv
Jure
Country
##bus
seasons
legal
Izv
treće
računalnik
oceni
meseca
kup
Pal
KOT
##vale
znakov
upal
ugotovitev
pomembne
podsjeća
otok
kro
activities
Dia
##pre
lit
Ohio
Kit
1871
zapored
zadel
ulazi
mednarodni
Audi
##hel
##aa
zame
zahval
tražiti
ph
nikako
mor
earlier
Russia
Ora
Gib
##rija
##ido
train
govorio
founder
##dd
ukvarja
towards
eksp
already
##put
parcel
kmetij
Plo
Messi
von
spomenik
ravnanje
obrazovanja
becoming
EUR
zag
us
spod
igralec
flight
BR
##vat
##nak
tan
smeta
Kong
##ux
##ella
umetnosti
tajnik
##lor
tisuće
recent
pokala
planu
moremo
mer
flo
spremeni
pripremi
področje
going
Put
robu
kle
kit
era
cilja
Elizabeth
Bis
##ters
##nek
županija
zgodovino
zahtevo
source
kvalitete
finally
Now
Ay
##opa
varnosti
održan
minor
meč
umjetnosti
results
prog
predsjednica
listin
kamp
Pala
Ei
podu
objasnio
Zor
Pove
##onal
press
Kil
##sin
##mb
##jala
##iral
prispevk
prioritet
poznat
pomalo
obliku
koncentracij
izpodbijane
energijo
##ving
##thi
zdravlja
rod
letno
##tter
##tik
zemljišč
launched
flu
certain
Lige
BDP
1928
prag
partnera
oblike
miris
yards
pritož
najvećih
evra
code
Lun
##čnim
know
forum
Lar
Ena
##uci
zahtjeva
characters
bogati
Victoria
3000
##iko
zanimanje
sten
nogometni
autor
zid
višji
limited
friend
businesses
beli
Spe
##ako
sluša
pripor
postaviti
osnovnih
foreign
entered
culture
obeta
Mile
visoki
tla
službo
rec
Con
##nit
##gers
sug
realizacij
pozornosti
legend
Triglav
Dejan
1933
##kali
##joče
novosti
Their
##PR
takvih
raziskave
poročilo
need
izrazito
dejstva
Brun
##ožen
vpis
tržišta
dosegla
dojam
PI
Marka
##čeno
##rey
##pti
poruka
krivi
hol
dolg
Iza
##ivno
zanimljivo
telesa
prese
##mana
študij
tablet
samom
pobijedio
ina
Sky
##vnik
ukra
pogojev
kriv
glavu
dokazuje
Jel
Governor
##šeni
##obo
##hs
surface
uve
ocenil
mainly
kont
delavci
RAZ
1934
##erij
##enju
strahu
naslednjih
Sil
Franjo
Dance
##nima
##ljivost
produce
pir
obračun
gun
gro
Pass
Osta
Arthur
##nike
Tek
##zon
napokon
nag
##Ć
cijenu
ban
Trans
##rsko
##ovim
učenika
4th
razdoblje
izbi
##AT
##jani
nasprotnik
Vuk
Olympics
Burn
želeli
spremlja
sha
potpunosti
naravi
Nem
zač
word
prilično
planet
ode
napadač
izbira
dug
Rud
Back
Ann
AR
##nut
nere
houses
Atlantic
strokovnjaki
selected
očita
objavil
dokumenti
Takv
Anthony
##uth
##stein
časopis
prikaz
otkrio
##uši
##met
##daj
snagu
roditelja
reform
nositi
njenega
industrije
Week
105
usu
rezultata
odlučila
naredili
lica
Najbolj
NFL
##aje
zdravljenje
sodelovanja
prihodnost
omejen
mono
MED
##lice
##jiva
upošteval
turned
sastanak
odhod
ističu
direct
Vam
Mos
slabe
##umn
##rec
koncesij
fre
Sav
Eu
##alne
životinja
zunanji
prilog
fin
Ib
Gregor
1935
##ež
mnogim
ekipi
bas
Miro
##škem
stavb
nobenega
matches
kal
Nemčiji
##sburg
vloge
njezino
Commune
##bit
norm
našla
Round
Imamo
##IM
temperatura
koz
Nata
sprejeti
določeno
Vje
Hrvatskom
Britan
Bau
##rem
vizij
puca
njemački
##tch
##irane
rodil
holding
army
Barcelona
##obi
čet
sobi
pravnih
pobo
izuzetno
gla
##BO
krv
computer
Pahor
Mil
Jun
Jewish
Beli
upravnem
srečal
protein
pokret
objekta
svu
pek
osvojili
odstop
obračuna
Walter
Peru
tekmah
okoliša
napovedal
Ball
1932
##30
##rk
modeli
kriza
kost
friends
Network
Bus
Bishop
##lici
strel
sporu
povzroča
moti
eu
Odgovor
##STI
obo
izdaja
Bli
upoštevati
stated
rep
povzročil
Lud
Europa
DJ
##kcij
takih
salon
profit
honor
file
Jon
Britain
Bee
##uit
predstavnici
ponavlja
moji
zabran
psi
Svaki
pamet
motiv
Papa
zgodovine
theme
polni
okoliš
italijanski
določene
cla
TD
Qua
##sne
##rol
##oke
##nel
reach
passed
nadzora
mira
join
privatni
objekti
najboljših
housing
Who
Ljudi
LE
Dal
villages
ureja
američki
Prime
Lan
Juan
Ea
Barbara
##nila
##anović
##sr
##hon
##ett
zanimivo
učinkovito
obi
Mit
članic
zahteval
rek
pon
onoga
politični
fla
difficult
Miller
Luc
##PO
##JI
##rić
sliko
rea
govorili
evidence
PR
##ioni
weeks
mit
carried
Boga
##jač
zveza
relativno
priti
popi
brak
Spi
Ham
202
zamenjal
uređaj
prireditev
##ZI
##zl
##bert
šel
sklada
građane
dovesti
##hom
župana
kontrolira
dostop
##iraju
##cah
tistega
najveća
mogući
izveden
bivše
basketball
##hov
vjerujem
opi
obenem
desetih
becomes
Mostaru
Dnevnik
sredstvo
osigurati
investitor
##ying
##mbi
##fon
pripo
pp
daj
Čas
strinja
lives
contest
avtor
##vš
prekršk
množic
longer
izbaci
ciljem
##loški
karton
er
ZN
Ner
##iranja
dovoljenje
distance
Victor
Kid
Eden
Dani
suprotno
skoro
prijave
noči
njenem
influence
bog
Uk
AB
##telja
čudno
večja
map
kršitve
azil
Zavod
Rade
##kt
konferenciji
coast
##ovin
šestih
fakulteta
alkohol
Gene
Clinton
vre
vanj
ustrezne
religious
obč
Isk
##RS
##nat
raket
pokazal
pel
navode
naprave
lastno
Urban
jednim
concept
Kli
Karamarko
Inn
##ago
vrača
pozvao
kril
formerly
dolžnosti
blizini
šla
talk
pravica
oti
Dušan
Also
##uin
table
različite
političnih
https
budi
baseball
ZD
Wilson
Islands
##tvu
##rč
vesel
obrad
grob
Zadru
##umi
##ume
žrtev
prijevoz
pijač
odvija
narave
Inf
##rb
##nde
posledic
poduzeća
kur
fa
Bud
##mje
poročila
Microsoft
LP
sklenjen
neznan
##fic
##dna
tožnika
ske
poslal
poraza
pokušaj
opravili
naročil
nabav
mis
defeat
Viktor
Vijeća
Druga
Dražen
##logi
##lnic
zapisali
manjši
financial
Bah
##lav
spreman
pomi
nanaša
increased
Sli
Ris
Carr
##rou
četrti
posebna
##tly
##inal
##hed
##ača
ugotovitve
potpis
otrokom
according
Vel
suradnje
promatra
dos
Miroslav
##hl
##bran
bruto
Zad
Osnovn
Hollywood
vijest
subject
prihoda
obstoj
največje
dop
ana
##jaka
##erv
vsaka
kmet
issues
gradonačelnika
Neu
Gran
Dream
odmer
metres
avion
Vu
Regional
Lab
##ked
programme
idu
Kranj
##ćem
zbornice
tujih
hranu
hor
gospodarskih
comic
Tal
POS
##AJ
spreminja
rešitve
predmeta
isprav
bolnik
Games
uga
tiskovna
pogledu
glavnih
Books
##sij
vjeruje
razm
pripravil
Pin
Klo
##taj
##rš
vlado
napravili
dokončno
Vice
Que
##SA
svetovne
Stru
##bro
zunanje
zgradi
načine
##she
##niške
sprožil
posred
poslali
osebno
imeni
companies
build
bazi
ameriške
Gal
Cli
##estr
shown
serving
kampanje
flow
TI
Cy
##pad
osiguran
odgovora
gi
Pravi
Olimpija
vedel
lokal
bolnice
##dili
završen
vrne
tehnologija
objavili
kredit
helped
Operation
Federal
##urn
stone
priopćenju
odabir
dijelom
##pni
plačal
minutes
ar
Bin
##hing
poklic
najem
Empire
jedr
display
cha
cas
Zadra
Another
##ovanja
športne
vpraša
standardi
sili
plačati
obavlja
nasilje
heavy
dvoj
Nam
##cz
trag
prikazan
pole
plača
kanal
iskreno
interese
Anne
vje
associated
DI
##fort
studija
bes
##vio
##ače
##arno
zi
podaci
offered
odgovorio
lack
iznosu
Michel
Cab
Amerike
##sho
##jeval
dija
bližini
Bun
svira
prebivalcev
okolju
marriage
ljubezen
drog
delovni
Roger
Polo
##anjem
zapor
upozorava
opće
napor
evropsko
dopust
baci
Vukovar
##vest
##stov
rođendan
potek
cel
Slovencev
Pes
Conference
##weight
##kk
odpovedi
oblek
načinu
govora
glasov
Cur
##ćev
vlogi
sosed
smješten
Ever
Bernard
##sman
##rdi
Ža
vrt
big
Hen
Cop
koles
forest
evropskega
ud
savez
prodajal
Wo
Rusi
Letos
Kom
Gy
1929
##tim
##stu
##nn
##hm
spremembo
finančni
MUP
##rak
##irala
##end
##cas
ugodno
hrana
hotelu
Institut
Coc
pritožbi
pomena
peto
izjava
igraju
funkcije
Sai
Hum
Bes
##unc
##ovega
##elji
##anski
konce
finančne
artists
analizira
Yorku
Bala
##shed
##cka
predviden
nagradn
Aj
19th
##ists
##cia
##aba
towns
meaning
domaće
din
Država
##ženi
##mina
Roy
##ijedi
zaveda
vodila
visit
osigurava
crew
Dela
##čil
##oz
##oh
##hr
pristupa
povezuje
platiti
obrtni
noted
intervju
hoda
granica
fle
Eastern
čimer
temelj
mlada
Yan
Prve
##IT
##ET
tipa
povečan
policist
cities
always
acquired
Liv
Gan
Foundation
103
studij
kupci
kultura
izvajanje
ang
Marie
##rava
vsej
pritisk
executive
disc
borbe
Ab
##ono
##obn
zob
wood
operation
jedina
forced
djeteta
##NJE
##qui
##ovski
##kok
vote
touchdown
osv
migrant
changes
Rei
Luci
##yi
##gla
kva
birth
Both
##đeni
vojaške
princip
mentor
Marina
Croatia
##tari
##ogo
##mpi
##erb
##ctive
šire
brojni
##inski
tor
sodobne
hold
Toni
Set
loptu
larger
couple
Mrs
1970s
1960s
##ND
##čkov
zavrnil
tožbe
sok
slikar
seriji
particular
blok
Sab
unos
lepot
lep
Ps
Dana
##eb
ring
potres
pogoj
multiple
mili
javnim
Igra
##plo
pil
Justice
##fil
uni
obil
nation
cijelog
##dov
smjeru
prvakov
officer
odv
kra
Has
campus
Oliver
##pon
##hne
##dic
subsequently
blaga
Sama
Assembly
##40
##urg
##kaj
sektor
občutk
Ross
uvoz
sumnja
sceni
mobitel
##tij
tekmoval
referred
potr
nepov
križa
generacija
Ptuj
Fac
1800
zdravil
sindikata
porast
makes
failed
academic
##EGA
Župan
njegovoj
izvora
Silver
##gam
črk
temperatur
društveno
Merc
Dem
##е
poje
napovedi
heart
epi
državna
Palestin
Moja
Hod
##13
##čin
##ovac
sort
sadrži
povezana
jez
figure
consists
Udruge
##gled
skupin
preprost
odpira
kupi
Episode
##žil
##čevi
##rot
##asti
uživati
uš
rano
obrok
direction
dalj
bogate
Mill
##upi
##lect
stanovanja
povećan
machine
ill
Zim
PE
presented
krevet
kakve
dokaj
Zav
Budi
##phy
##mas
##kol
wo
reči
kandidatur
enter
demo
bron
Way
Kla
zeleno
iskaz
branch
attend
PL
Američan
##til
ura
sledil
lak
kore
delovnem
ameriških
Lac
Andreja
shi
enake
domačih
dnevne
Wy
Windows
Ble
##21
##oon
##hood
##ange
veleposlanik
razlikuje
prizna
ministrica
composed
Sarajevo
Budući
Asia
Alp
##čkim
##mpa
zahtijeva
wing
variety
nazivom
managed
govorimo
Ži
zavarovanje
plans
ogrožen
odvetnik
odre
edina
Znam
Kraj
##tnik
##tit
##kop
##gre
##avo
reklam
prop
preživlja
povez
brend
Char
1980s
##SL
##Ba
##gr
##cast
širi
product
predpis
navija
namjer
meril
državnog
drugima
Greg
112
##spo
##lio
Čo
zagotovil
ozljede
odgovarja
bun
Cla
1500
##OST
##lea
##gov
zasedb
zabava
smel
resnično
prok
pojavi
noče
nebo
mental
competed
aktivni
IM
Cher
Call
starting
preli
prejeli
comune
Vrh
OZ
IC
##lag
##ište
##izi
sreče
razinu
osebni
kli
istina
Sche
Plat
Oh
Juventus
navedeni
najti
miles
menil
igralci
Ted
Sva
Space
Base
##SI
##ziran
##iću
ses
navijača
mojstr
lan
ekonomske
##ways
čuva
planiran
ušao
razgovora
poplav
knjigi
castle
##ose
##ities
zadevo
pos
mlajši
galerij
caused
besed
Rai
DN
Age
##irana
##hit
zgodbe
zadovoljen
stručno
stalni
ničesar
finance
Garden
##ičan
časovn
zanje
walk
tradicionalni
rukama
raziskav
poče
navečer
ministara
likov
glazbe
Season
Pli
Hart
ple
ol
leave
aktualni
Even
1927
##NT
spodbuja
splošno
sistemu
Houston
##žar
##šević
##šal
##bb
spodbud
os
ljudske
Mini
Hop
##šev
##jmo
##ig
##ets
sporočila
potez
parties
mah
letošnjega
cre
Rep
Radov
Kog
Channel
##come
zapora
terms
obveze
neiz
bra
Bilić
##tski
##gova
uniform
tistem
statistik
respect
pokreta
smještaj
potreba
pao
košta
fran
Test
Nic
Diego
silo
produkcij
izvedbo
OŠ
##kav
upa
trav
naje
izjavi
goriva
godišnja
Sunday
Spring
Rek
##zet
prihod
hid
generacij
cell
##išča
svetlob
studies
polovico
Corporation
##sten
winner
odgovoril
gubi
Pas
##sle
##oso
četvrti
zbira
raz
hodi
Matej
176
vojna
stu
slučajno
mleka
kritik
initially
Rick
##ican
trgovini
tal
negdje
humor
Hay
Despite
sprejela
duga
bli
Rea
Denis
športni
nastavak
nai
intern
cer
Kha
zgodbo
uveljavlja
prig
Ryan
RI
GR
##pić
##aji
tabor
stories
muškarci
mesece
letal
invent
disambiguation
Vaš
Bron
znan
zdravstveni
serves
preživel
potrebni
pota
opera
ohranja
Wei
Boys
##ovic
##bla
očekuju
ministri
laboratorij
dim
comes
Rich
Nav
Muslim
Jazz
HR
##eja
##dil
žup
šal
zone
upozna
tužb
prispeval
nak
Rijeci
Marić
##tava
Razlog
Njen
Imam
Dick
##mate
##anov
ukoliko
spin
nek
mix
izdanju
bogat
Holy
##ivanja
čokolad
prevzem
gora
glasbo
Story
Prek
##nata
zaslon
uv
slova
ponašanje
Medi
##14
##nas
stranu
gospodar
električne
Moon
Lang
DC
##ege
prostorih
priv
Trst
Bolj
živil
usmerjen
sedanji
prosil
odločba
kin
Ist
GT
1919
ženski
zdravstvenih
vrhunski
vis
Guard
##ū
themselves
prenaša
nadaljnje
TR
Mou
Hamilton
##worth
##mot
zasluži
zakonske
union
prominent
prolazi
pjesmu
obsojen
kompanija
izlazi
dionica
boda
##java
##janja
##aže
##ating
zločin
zatvoren
zamjen
predava
navedene
Carlos
165
##čena
pritvor
predstaviti
pravna
odbija
MS
1924
##rop
##board
števila
utemeljen
njom
načelnik
možno
literature
izravno
glumac
em
Vesna
Darko
##ø
##ym
##boj
tru
smi
poved
Lad
##mble
tožnica
omogočil
graditi
barve
Sco
Moore
##vez
##fan
razvidno
plin
oca
moraš
etap
deep
basic
Classic
104
##det
zdravila
tiska
raven
ods
glumica
Rh
Nag
##PI
##živ
##gram
čestita
sezonu
savršen
prosto
ponudbe
poko
kamor
isk
dogodek
content
Maro
Lag
102
##ČI
uzrok
sastav
odlazak
nepro
kne
izgubi
izdal
gradova
družini
##sson
##bio
europske
Hab
##fl
razvija
predlagal
nearby
nade
element
Mercedes
svako
razum
poreza
niza
krvni
Prev
Ministar
##riz
##oi
##hard
##enc
zako
visoka
slalom
pričakovanj
prizor
posebice
Mat
##rre
##oll
##jno
##fre
ž
smanjen
povećanje
izvajal
izradi
izbjegava
amount
Smo
Kari
##18
##vac
owner
obiskal
francoski
bogato
Sveti
Shu
Semi
Hell
##pljen
##odo
##gri
##deli
županiji
vodio
stati
povezani
overall
nekad
izd
Pogo
Kro
##ičko
##eče
vodstva
sekund
prazn
posod
paper
osiguranja
nesreče
kompanije
intenzivno
dogodila
Allen
Agrokor
1990s
##mba
vsakega
repe
radili
otvoren
Kav
Bet
5th
##omo
šut
whole
website
vemo
toplo
tekmec
policijski
festivalu
Nik
šesto
člane
zanimljiv
velikega
trak
smer
Prop
Andy
##pes
črt
uk
street
manjšin
##ujem
##cel
sign
shark
prepričani
pozitivne
pojasnila
imaš
daljnje
ant
Potr
Kanad
temo
proba
pričakujejo
komad
fund
Srb
Professor
Neg
Form
##vad
težin
preci
mountain
dane
Sie
##pr
##die
Šo
zločina
spor
pratiti
parents
hiša
Tas
##uša
##sol
##inje
takvim
remaining
prista
prejšnjega
obresti
nogometa
Milošević
Kras
##EL
##gha
čakal
rop
Zlatko
Revi
Bed
##rine
vama
povabil
poslov
mod
godišnjak
bore
Sle
Prof
Jam
##iči
široko
glava
bottom
allow
Ome
Njemačka
Name
Israel
Cole
uh
risk
problems
pjevač
otp
naselja
cesto
Class
##joči
##jana
četvrt
zapl
reprezentant
prikazuje
poticaj
domaćin
article
akciji
Pov
raj
pristojnosti
naglašava
jed
begins
Michigan
##AV
##ovem
##izma
##ester
roll
posest
gospodin
Philip
Andre
##TR
##čim
Želim
staršev
pala
današnje
Fat
##ür
živijo
pošten
površin
potencijal
oglas
northwest
narodno
kilogram
Motor
Girl
Cle
##žna
osiguranje
napadi
menadžer
kas
interview
earned
Rak
Prim
Oko
20th
##vske
##kod
rasp
our
nogometaš
marketing
Mira
večn
prekršaj
evro
djelovanje
Sound
Bul
##nth
zamjenik
rej
priznanja
nedvomno
mestih
kredita
končala
ideal
green
capacity
architect
Porsche
Police
Pariz
Howard
Fur
posnetk
međuvremenu
kill
forms
Savi
Rem
Gala
zmage
zadrž
senat
renamed
psiho
predaj
Zdravko
Istra
##lnih
solid
pogreša
odo
ambi
Rusije
Jordan
Federacije
Cap
##ovala
značaj
zida
začasno
urejen
ulazak
maščob
kakšna
guest
bot
Nina
##sca
zo
studied
razkril
izobraževanje
gozd
cal
##usi
prozor
pope
pogodak
olakša
notranji
golf
doc
Franco
##bic
vatr
spal
posvetil
photograph
particularly
latter
izpostavil
fan
dru
Ust
volitev
receive
beat
##otr
##edo
sredini
samim
pritožbeno
origin
neod
letoma
dead
Milana
Ive
##nch
##kvi
proći
polovica
brata
aparat
zagrebačkom
ljudem
kakvi
claim
bod
Short
Bran
##čića
##tina
##nki
##ized
upnik
inside
##nsi
##jić
##ional
dvadeset
discover
council
Josipa
##uzi
##oče
članstvo
četrtin
redatelj
provesti
polju
plakat
girl
državnim
Jakov
EN
##mil
##dina
ustvaril
tja
svjedoči
split
radovi
postigao
odprli
jesen
##vani
##cij
vijeće
pritom
lepe
kolege
Podr
Justin
##rse
##bni
teče
suit
religij
episodes
emp
Nin
Kine
##vski
##kama
većinu
send
oma
odpravi
napravljen
igralcev
delal
cur
Kings
##čarj
##remen
##lih
##ivni
vrti
ustreza
sinoć
sabo
raised
milijon
izre
ciklus
Ras
Ky
rein
privatno
pobudo
nužno
koš
karakter
Race
Kam
##zk
##uga
##enta
tajni
ponovo
komentar
bru
##01
##nam
Članak
ostavlja
nemške
kritizira
francoske
basis
Ton
Pros
Mars
Ljubi
Ami
1925
##žić
##pc
združen
tretman
terjatev
pomisli
oružje
napisan
mog
hrvatskoj
fit
crkve
Fun
Borut
##štin
##oji
##och
številka
sposobnost
služba
redne
navdušen
escape
Rib
Hvala
GA
Brand
Belgij
videz
sportski
##tana
##rik
tie
teret
platn
nesreće
Area
##form
sobom
qui
opravlja
mogoč
lines
blue
Ry
Magn
IP
Blo
##ş
strike
ranjen
question
potpredsjednik
pore
križ
##ijski
žali
razume
opravljal
medicin
kategorije
floor
dogodkov
Zadar
Dio
##tav
republike
primarily
ogromno
maš
job
investicije
continue
carin
Opa
##ljal
članka
pokri
opisal
novinarima
djelatnosti
Side
Pis
Family
##rli
##mber
##bil
offers
groz
##PE
##ŠK
##vića
##vina
čudi
vit
umetnik
pete
okolici
kriminal
izrek
dvignil
doseči
constructed
Nap
Nadam
Lib
##ée
##rea
responsible
proda
političari
občin
extended
Izb
5000
##čak
##illa
toženi
razredu
prosi
poruku
kaš
despite
baro
Rain
Jed
Development
1922
stranaka
porok
izbran
hu
hrvaški
Johnny
Jako
tista
srečanja
nažalost
mogle
bh
Web
Hat
Din
##60
##ott
razlogi
nezakonito
lies
identitet
ancient
Gore
##IC
##eer
oškodovan
husband
effect
Region
Naši
1926
##lak
trenutka
recently
ponudnik
kakva
favorit
##phi
##gna
poseben
destroyed
VA
Slaven
Cant
Bang
1914
##vije
##tera
##orn
zadužen
stanu
preš
osuđen
except
effective
dogovora
Anderson
##oza
##jam
osnovno
nesta
gost
etc
ber
Rit
##šne
##ićev
technology
stoje
hlad
##ženo
vzor
poseban
orožje
organizacij
nikakve
glu
drev
ugotovilo
teži
stra
Fre
##štu
##čice
##ćan
##pati
##hod
##dol
ureda
stand
reprezentance
poznata
pone
izboru
Medal
Jag
93DB70
##Ka
##lej
##dem
šećer
zainteresirani
vrha
važan
povedati
napisala
loan
kreće
aid
Duc
##AD
##pper
##ery
zastupnik
kvaliteta
krov
izabran
industrial
KR
Drugo
Corn
Asian
##mai
##gni
zove
stre
rijetko
pje
metoda
materijala
Irsk
Forest
##zg
##inj
##hta
škof
zavrnilo
ultra
svatko
sreću
razgovara
posljedice
portion
brojnim
Stjepan
Marcel
Independent
##pho
transform
stranci
ref
pojasni
notable
nal
hill
fore
dopis
Splita
Lis
Chic
##ead
znana
ukrepi
tab
sudjelovati
sklenil
nekakšn
Stari
Dublin
župnik
oc
jugo
dobru
##br
vozili
silver
opisuje
karijeri
alternative
AI
##ware
skladatelj
postići
podpira
hoče
est
arms
Arsenal
Arg
##rju
##kus
##gat
zagotoviti
udara
subjekt
organizirano
okoliščin
lete
fell
Uv
NS
Gary
##iat
##acijo
zub
tat
profil
profesional
krug
delnice
PRED
Daily
Box
##CIJ
##jon
zvon
tijeku
nearly
claimed
System
Skr
Obama
Bijel
Bab
2020
##bir
##ack
ža
ustavil
izložen
celotno
##šin
##love
##juč
##hop
##ać
want
stopil
medical
kopi
italijanske
delovne
Večina
Edin
Dje
##nai
##graph
##bli
rab
potekala
največjih
muškaraca
kakovosti
Esp
##tova
##tm
valut
products
papirj
obrat
nose
njihovem
drive
assistant
Kill
##dis
##ative
tebe
southeast
protect
int
hudi
državnem
citizens
Vla
Dub
##kem
smjen
ratni
privatizacij
nastavku
muzeja
duh
Slav
Minnesota
Ltd
Know
1917
##15
ženi
turnira
save
postupku
gene
Slu
Chu
##ševa
##čina
sudac
rural
prijavljen
potrebi
nastopi
lot
adres
Grabar
##SO
##čeva
##čenje
##æ
##ciran
sporno
rastlin
predvid
ndash
dvojn
Vidi
RO
Argentina
##sic
tvoj
pom
ogromn
kaznu
Uradni
BMW
##ljenja
teles
pojasnjuje
operacije
igrala
Stage
Poz
Mog
##joč
##ijih
željo
rival
preizkušnj
posebnih
numbers
hude
fine
enaki
blagdan
Pac
Eng
##tone
##nb
lokacija
dark
Qui
Ins
vaša
už
posvećen
poor
jel
dor
Management
Dragon
vid
udarac
stručni
ozljeda
novinara
clubs
Rec
Prix
trudi
prehrane
označil
delavnic
crno
appear
Tina
Nis
##spa
##kot
##jših
##enog
##apa
tells
sekundi
razgovarati
preva
kralj
kombinacija
karijere
glasoval
enough
bližnji
Tat
Swa
OK
Danijel
##hic
##gno
##aciju
zdrave
uloga
skladno
saveza
rez
razmišljal
implement
horse
##vica
##gol
spas
letošnjem
bolest
Mra
##phic
##nomi
##mn
tekmovanja
takega
skušal
sex
ovira
energy
belong
Swi
Nes
##zacije
##lim
##ark
sodeluje
shop
sestre
proved
pair
objavljeno
boš
Wh
Priv
##eth
ubijen
takšna
omenjeni
odvisno
kazne
filmov
ekran
desni
Duh
##jec
Čačić
znamenj
veću
policijske
kafić
Večernjeg
Sher
Secretary
LDS
Hea
Cin
##AK
##njski
zlata
zgo
zborov
velikan
think
posebnega
might
mani
doz
dogovorili
Today
Jak
Every
Berg
##ugu
##jek
zmagovalc
ustvarja
njezine
nase
kulturnih
korupcij
glavnem
diplomat
AA
##mati
zakoni
ući
ureditev
priznava
helikopter
Včasih
1923
##fin
stručnjaka
stala
spregovoril
rimsk
proizvodnju
odloča
Norvešk
Celju
##ćoj
##vanjem
zmagal
zim
stroški
reče
physical
kolajn
eksperiment
dvojica
belo
##nič
##ikov
##dt
Ško
znala
zemljo
opti
oduševljen
nude
lastne
crime
##logical
siguran
prevod
poveča
medijev
Dur
##nova
##ition
šti
reli
ponudu
ponovi
najn
card
analize
Pie
##stone
##ied
vl
vedo
rokah
ned
naroč
kul
Bogu
##rva
##nna
zavzema
tožniku
narodne
len
atraktivn
Detroit
Britaniji
ABC
##cati
razvit
ključni
districts
##ES
##čkoj
##ctor
zanjo
vložen
uspe
tren
ispit
ID
Hau
##Pa
##ujući
zaščito
zaključuje
turisti
spopad
povećava
plesa
novinare
nepravilnosti
najd
generalni
Rio
Google
Dallas
Buck
##titi
##ches
vjero
umjetn
topli
sustavu
polet
perform
facilities
državu
dreves
Mom
Kaza
CI
##žj
##ksa
žu
želji
vlasništvu
unič
televiziji
supported
općina
naloge
lastniki
glavnog
albums
Nar
NK
Led
AFP
temelje
sporočilo
spolno
dalo
##sco
##ray
razliko
puš
ponuditi
permanent
održana
fifth
##ures
##tus
##itr
vag
olimpijskih
objavljen
nespo
efekt
dimenzij
Take
Oče
Kub
Dodaj
##Bo
##yr
znižal
treat
premoženje
obzir
follow
dogajanje
arch
Svaka
Severn
##tok
troops
sand
probi
pisal
našel
konkretno
dec
Christmas
##stal
sodobni
raznim
ljudska
koži
izgubljen
izaziva
Count
##OS
professor
organizator
određeno
mass
dolazak
Mega
Matthew
##Po
##LJA
##non
##meta
upravljanja
reprezentacija
prethodni
oštećen
malim
lovi
filozofij
fellow
Wer
TUDI
Opera
Low
Human
HO
Ag
##jaš
verzij
varstva
poskušal
levi
issued
Pel
Democratic
##vah
##sov
Šar
vd
razl
povezane
edukacij
dig
Zanimljivo
Telekom
Dru
##OG
Špan
starejši
osobama
Tuđman
##vene
##nter
##lay
usa
pisma
oprema
obliko
noben
j
govoril
Prize
Polic
Member
##aru
uza
otvorena
moment
inovativn
Rog
Jana
Express
115
##tat
##sci
svinj
radom
poleti
oporav
obrati
mlado
menijo
kazneno
estate
div
cijela
Pul
Marg
Illinois
##mag
čitav
zločine
vaj
srcu
sh
posle
plati
lap
knjigu
accept
Ses
##tacij
##kr
reg
prenese
občinski
komentira
demokratičn
cases
Nev
Ide
HS
Gian
trenutek
sjajno
sigurni
pristoj
neprijatelj
naravo
composer
boy
believed
Moni
##Mi
##điva
##enj
zdravstvo
svr
spring
search
očekivan
Theo
SKUPIN
Reform
Pokr
Odl
Drama
Alen
1910
##reni
teacher
sretn
smanjenje
promovira
pomagati
joint
indicate
Vietnam
Ovi
Bili
106
znanstveno
tužitelj
scoring
rule
računalnišk
poziciju
pam
lutk
vezani
idealn
discovered
##AL
##mani
##cks
odgovori
oddaja
nei
lon
dolžnik
divided
cijelo
Television
Alojz
##št
##upa
##skimi
slični
raspravlja
pušk
poškodbe
pomagal
jima
Um
Swedish
##sz
##ize
##dim
osu
obtožen
bicikl
Osijeku
Leo
##rko
##rep
metod
boat
Kitarović
Hrvat
Had
##DS
##šak
##ušić
znesek
plina
ote
ones
letter
finančno
coming
##erja
w
vroče
sredine
pije
opom
najvažnije
mladim
Arr
##đaj
turnej
razpisa
omenjene
gibanje
direktorica
ama
Nava
108
##kie
##jansk
##ius
večini
takvu
proizvodnjo
olimpijske
avtomobilov
Past
Nikoli
Neil
Ljudje
Gordon
Dead
Arm
##lad
znanstvenik
trendov
secret
mreža
fanta
Whit
Rom
BE
##unj
##opo
##ološk
##ljenih
##išta
##elli
##aran
tel
putova
obljub
izk
hrvatsko
engineer
brojnih
Znan
Mass
Hoće
Facebooku
##vec
##ušen
zvezdnik
znal
spomnil
path
određen
medijski
izlaz
bak
Tone
Nob
Kut
Bruce
##spe
##ljivih
uniji
prirode
katera
doseže
cause
bro
Ska
111
##inom
zelenjav
zahtevka
ustav
ulaganja
prepozna
financijski
##pora
##ostjo
Želj
zv
words
srpski
skladb
odkup
ključnih
jutro
Ward
Girls
Cape
450
##čene
##ics
##fij
zadatak
tražio
told
teške
primerov
obsega
mea
fer
captain
Zak
Ost
Kel
Jen
##ljivosti
znanost
stabiln
odt
Thompson
MOR
Knight
##nds
##enik
purpose
psa
pouk
Penn
Kentucky
##TN
##zh
##opr
##cat
ugotovi
tet
minutah
izv
##и
##tati
##sak
##jeri
Švicarsk
zemljišča
vitamin
razve
primijeti
partij
novoj
nacionalni
kip
infrastruktur
glumi
Ured
Ster
Did
Brook
tistim
tije
saz
pomagali
pokušao
opra
levo
letališč
kandidatk
Personal
##ndo
##aya
uvid
sretni
producent
pripeljal
predloga
namenjen
nacionalnih
naci
math
karijeru
delati
charge
banki
Rama
Here
ubija
trial
rak
popoln
pokrajin
pojavila
nadi
meet
juh
Shin
Jason
Grčij
Embassy
Dam
##zar
završila
odzval
napa
koalicija
filmske
dvorana
besedo
Osijek
Metal
Mend
Gon
Centra
##wards
##iba
pristojni
nau
kardinal
britanske
SV
pokraj
novinarski
lider
fri
Iva
Grant
##tke
tijelu
spora
spletni
proteklih
kapi
državama
Zas
Kh
Historic
##yc
##sad
##cus
zgled
prošao
primi
pridobitev
otoku
natjecatelj
contact
Hkrati
Design
##vice
##bed
svečano
srečanju
naučiti
mlađi
meji
fotograf
Tip
Stol
Memorial
##OČ
##stra
šefa
zlatn
svobodn
stup
skri
okoliščine
natjecanje
luč
kali
judge
demand
Too
Skup
Prag
Hel
Dean
##boy
##bat
studenti
ben
Sh
##rci
##erson
##arna
sljedeći
prethodno
ostvariti
moža
hosted
conduct
Pic
Ini
Community
##rav
sek
predstavljajo
potrdila
potpun
oil
naložb
majority
liječnici
kandidatov
ameriškega
Tokyo
Tem
Predsjedništva
Norman
Moo
##rap
##erl
številko
zvi
zaš
skupa
ozlijeđen
infrastrukture
believe
Wes
EC
##vk
##rek
##ald
preme
ocean
obrnil
obrazovanje
kori
kadrovsk
glazbeni
dvanajst
dodjel
delavec
Polj
Luis
Comp
##cles
zara
prihodnjih
poškodovan
opravljanje
hrvatsku
bomba
bodisi
Zel
Isus
##HA
yet
ustanove
sodeloval
rekoč
prijenos
poškodb
dvajset
delajo
cra
Turčij
Tokrat
Polish
Gora
##ock
zapre
vn
virov
televizije
obravnavo
noćn
naredi
delni
Vučić
zadnjo
vožnjo
quality
porez
osebnih
napis
klasični
izdaje
hat
global
abo
Sveučilišta
strokovni
stanovništva
samostan
predstavo
javna
dulje
crveni
cho
cap
Nismo
Chen
Ampak
##ival
vrtu
učenici
prom
predal
pogledati
odgovoriti
jesti
glasbenik
Nažalost
##irn
zvuk
zbral
testiranj
nemo
muškarac
izložbe
ded
borbu
##via
##mom
##eže
unaprijed
sreće
smatram
regionalni
rank
proveo
neg
kinesk
bele
association
Primorsk
Kana
Blaž
Ap
##sje
težak
nemoguće
lijev
leđa
Pep
Kle
Aa
##SS
##iški
##gio
##ansko
zavarovanja
vsta
presega
pravočasno
pošteno
nekdanjega
izdan
finish
dokazati
Wal
Portuguese
Nič
NJ
Bowl
##gori
Žu
završiti
vijesti
tržnic
sliki
rukom
razgovoru
prepovedan
pobud
otpor
muči
izkušenj
VR
Lil
Earl
Disc
##ipa
target
srednji
optužnic
odločanje
odk
moru
mejo
ekonomsko
Uvijek
Dy
##ovni
##ope
sprva
projects
odluči
ljudmi
drže
PC
Notable
Library
Global
##stava
##mus
stečaj
mill
formal
domaći
deloval
Prov
Indiana
Got
##ivan
##ior
response
objavljeni
liječnik
att
arrived
Klin
GP
Colo
šanse
sodelovali
ser
prihodnji
postupka
lepi
duhovnik
denacionalizacij
Off
Mani
##liz
##edni
##cul
šećera
vprašanj
takšen
smaller
narašča
cigaret
bijeli
1915
172
##mis
##erne
##ders
četvero
zlorab
purchased
prekrasn
pošte
passes
načela
kr
kožu
gibanja
Tega
Rebe
Fil
Ac
##ušk
trč
traffic
sodne
razloge
poslala
moških
mednarodne
karte
gledal
deklic
Vodi
Third
Stre
Renault
Pap
Just
Broj
##play
##oča
##mm
##hro
##ates
sudi
quickly
predpisan
kakšni
desne
challenge
Isp
Gill
##rej
##nent
##meri
opasnosti
nauči
dvorane
buduće
SH
Proc
Only
Leonard
Billy
##vje
##jep
##anske
volilne
prepoved
morat
kob
heat
gli
Technology
Slavko
Palm
Fro
Fan
Dep
Airport
##ural
##eru
##avanja
srednjo
razt
promotion
page
nature
ljudskih
fu
Qa
Khan
Gil
##tivno
tamn
reformi
pročita
nanj
homo
extensive
bral
Jug
##tini
visokih
upravitelj
ukrepov
procesi
izjavil
Unatoč
Prep
Prel
##uč
##rice
##laž
##gij
##enk
vztraja
vtis
trud
pripadnici
povzroči
neodvisn
izpo
autora
Was
Rezultati
Osob
Benjamin
##mna
##kast
ukin
ubojstva
tretjem
tekmovaln
svetoval
stane
st
prometno
kraljev
faktor
druži
covers
Eno
vodili
ugotovil
krš
bring
Sal
Manj
Case
##ngs
ponovil
poll
oceno
neću
kupo
igrišč
gn
dob
akademsk
Id
##16
##arski
##aku
spremenil
odločilo
istim
formalno
cricket
actress
Lav
Hajduka
Bear
wall
sram
spremenjen
otpada
odškodnine
nećemo
mačk
lav
dobrega
avtomobila
##bul
Čović
theatre
pridobil
prebivalstva
goes
dužnosti
bear
Oscar
Lat
Hin
##rid
##ass
zbr
transferred
tradition
soba
places
odprl
najprije
assist
Tožnik
Spr
##ZS
##kul
##kove
##ajn
tožnikov
središču
row
pošilja
plate
otvoreni
negativno
kino
highly
Saboru
Jimmy
Charlie
220
centri
blokad
Xi
Otroci
Massachusetts
Gua
##rum
materijaln
izračuna
industrija
gradbeni
dovolil
Ljubljančan
Dinamov
##BE
##itelj
##igra
štetu
smisla
pritiska
pripravila
postup
pers
oku
napo
morebitne
kum
ekonomski
Marij
Kansas
##mije
sprejet
sedanje
publika
predlogu
pametni
osvojiti
operating
golem
glej
asked
Beograd
##TU
##usti
##stiti
##sky
##ller
##ljanje
čiste
sku
moštvo
homes
footballer
deb
Racing
Novem
Imp
Fall
Eg
Bie
##Te
##NC
##mont
##das
zr
types
spomenuti
prijava
ispa
gotov
follows
evropskem
Turn
Terr
Irak
##ušn
##edia
zvok
osta
opa
mami
kind
izvedbe
hektar
hall
Samuel
Gotovin
titles
kćeri
kava
biološk
Nenad
Hoo
171
##EV
##čeve
##sod
##cira
sveto
skupi
razg
pooblaščen
odu
nera
brz
Trenutno
Emil
Ama
srečn
prilike
petnajst
obnovo
međusobno
mari
izjavo
fizički
bon
Sca
Sak
Muzej
##bom
##arij
znamke
zapovjednik
vinsk
sviđa
stradal
stigla
sejem
razstavo
isplat
Squadron
Pete
Melbourne
Kelly
Holl
Barb
##BL
##šaj
##rtu
##cla
šum
Šest
zatvori
susretu
paš
odigrao
našao
kombinaciji
kategorija
gostov
explain
cent
Pers
Kath
##inte
ukvarjal
televizij
strateški
smanjiti
sliku
prate
por
piano
odkrit
jedva
jednak
##rga
##nz
##hni
trajno
tleh
rap
preve
pravnomočno
potrebujejo
podrška
ovogodišnje
kosu
internetu
formi
Večer
Rand
Štr
odličan
njihovega
hal
dramsk
Tis
SN
Evropski
Com
##tnic
##rth
##jb
##etr
##epi
zraku
upošteva
registracij
različitim
principal
klas
domaćih
ch
albuma
Six
HT
Feli
Cleveland
##tern
##tain
##ois
##logij
##danj
čaš
upita
teaching
svjetskih
sadržaja
revealed
prireditve
posvet
podvo
odstotni
maintain
Rijeke
Predvsem
Ocean
Lot
Holding
154
##šir
##sche
##pic
proz
poravnav
podobne
inva
Pak
Dog
Clark
##rina
##oko
##ljav
špi
zadržati
tlak
strokovne
stro
pošta
odi
najavljen
letna
konča
jak
hujš
enot
Obe
Kata
Ell
107
##Re
##KU
##dale
##bij
Živi
svakoj
sled
sca
poslanci
naglas
graduated
Vuj
Klub
Kem
Geo
Bart
##wing
##vci
strokovnjak
prirodno
postavljen
občutljiv
obveznic
navedenih
muk
mišljenja
imenovani
gaz
Zavoda
Tun
Sit
Cerar
##tol
##lima
živimo
statut
removed
razmerah
radikaln
print
princ
prakse
posameznik
narodov
kru
izrečen
dramati
administrative
Sjevern
##rod
##njena
##anih
zadarsk
tekem
strast
složi
skupštin
riž
pravil
napake
immediately
Vit
Hitler
Christopher
135
##cos
##bur
##ativn
vložil
uspješni
primarn
mere
cy
Sz
Račan
Premijer
Posav
##lie
##chan
zapo
studenog
sne
prodati
preds
izpodbijano
deta
concert
agreement
##gia
Šol
uspjela
urah
prime
organizacijo
omenja
nađe
demokracije
austrijsk
approach
Mall
Emperor
Each
##oy
##kati
##book
ženo
zast
vrtić
svjetlo
stavov
peri
kosti
jede
asp
Društvo
##valo
##rto
##lk
##icama
wild
stamben
plačan
obali
link
kose
izo
filmova
drugačije
arm
Russell
Pou
Mona
Glen
##uke
##jedi
##isi
škr
čekaju
obranu
koncem
bijelo
Wis
Fr
Čeh
society
pazi
mega
klubova
državljani
današnjem
Bled
##gie
youth
učinio
tožeči
slavni
pat
mojem
kolik
historic
celotne
Piran
Lut
zanimljivi
zadovoljan
uporabnik
trenira
ponude
Jacob
Cam
##н
učitelji
titled
talijanski
stopinj
sasta
roads
nadaljevanje
languages
iskoristiti
haljin
Winter
Sei
Roma
Republican
Pier
##rai
urada
predlagan
njenim
nacij
journalist
godišnjeg
giving
Lie
Frankfurt
##vent
##ibu
##ašnj
zasigurno
zabilježen
stališča
prošlosti
predpisi
osjetljiv
iskren
gain
določil
brać
Sava
Our
##bec
oddaljen
finalist
draft
actually
Scha
Janeza
Argentin
##ualn
##njeni
##išn
četvrto
uistinu
troškove
sekunde
prosječn
posjed
pivo
majhne
es
Europska
##EC
##wick
##fen
smjer
poruke
politici
osobni
ora
morem
designated
comedy
Umjesto
##run
##rima
##nos
rojen
request
pressure
ohranil
mednarodno
lip
djevojke
damage
Temple
Stop
Singh
##čal
##star
važna
rent
prevent
ovc
obrambo
najbolja
najav
ljudski
kave
directly
Tob
Om
Kin
##pira
##cht
##bury
šu
veličin
upravnega
sumnje
radnih
publike
programov
prete
površina
poslovnega
odločno
moz
lje
izvedbi
dobitnik
Luk
Lak
Anto
##js
zagrebačkog
uhvati
sedmi
rije
htjeli
dome
buk
Največ
Model
Alfred
##teta
##ick
##ann
zakonski
wind
stupnjeva
staviti
soč
sobe
ships
pravilo
povze
pokloni
otpad
nositelj
nat
mla
letošnje
igrah
Gru
##ologij
##gnu
##gas
zmagi
požara
potrošnj
patri
osnovan
krenuo
kratkem
driver
aim
##tili
##cih
ŽE
zabo
sastanku
realno
podjel
kakvu
factor
Valentin
Ud
Trener
Siriji
Ministry
##lovi
##evati
železnišk
situated
potential
pohval
obd
filmski
families
doznajemo
burn
Township
Brani
##čic
##njen
##kao
šolski
violin
ugleda
recover
pridrža
počuti
poh
podprl
plasira
financiranje
događaj
Franciji
Arab
AT
##ščine
##stri
##jivo
##govor
##atic
write
treninga
speak
slabi
pokojnin
objektov
nasvet
napu
kolesar
cerkvi
Sre
Ronald
Kie
Isti
Ferrari
Eva
Drive
upr
svjetske
socijalne
representative
rel
pur
poznal
politička
odvjetnik
naz
linije
jesensk
frame
Standard
Gaj
##MP
##odu
##low
##dk
številu
utemeljeno
savršeno
povedali
poudar
osobu
izvještaj
istog
brž
app
LTE
Death
##TS
##rama
slobodu
odredbe
namenom
kut
grew
daljn
Svje
Project
Player
stanovanje
specialist
reason
razd
največja
image
fair
določenih
dedicated
Sau
Poo
NAJ
Mod
Misli
155
##uči
##inc
##ijev
zaključn
vezu
upl
ukrepe
rare
proširi
pick
kritike
inovacij
dres
stroke
stay
sedmo
proizvodnja
preselil
navedb
interesi
celot
Voice
Lam
Beg
Šta
simboli
plesn
jela
izjavila
conditions
Ame
##old
##hur
##ffer
##anda
utjecati
ubrzo
trikrat
stru
sruši
poslati
popust
ostalog
najdraž
lokalni
informacijama
favor
dje
accident
Njemačke
2019
##stven
wanted
starring
luči
korupcije
investicija
dragi
brže
Zan
Maha
Ein
Bela
##šil
##stni
##ologi
ute
usp
problemima
prisiljen
poznate
policy
otkaz
ostvaren
odštet
objavi
mind
matter
lea
Većina
Nal
Bha
##stin
##nskih
##kad
časnik
upućen
tehnologij
spozna
prič
junak
administration
Rum
Metro
Mano
Ch
168
##EZ
ugotoviti
radnici
naročnik
jedinstven
fotografira
določeni
bara
Vele
KZ
##LJ
##tovi
##gos
vključno
sramot
priljubljen
prejema
operacija
nogometaši
kožo
klup
Studio
Czech
##eas
##cn
share
sales
reforma
paro
otoka
omogućiti
obavijesti
morebitni
konji
initial
električni
duboko
cultural
Viv
Direktor
##žnic
##mbo
##jm
##cijom
usmjeren
sources
settled
putovanja
murder
mos
mednarodnih
Sum
Sale
Pru
Levi
Douglas
Boo
1916
##uct
##nine
##isn
##cker
##bud
voden
popravil
podružnic
otkup
izgovor
hands
dovodi
ES
174
##phan
##dam
Črn
ruske
reflect
potreb
objave
mlijeko
europskim
Provi
##rke
##jub
##etu
vikenda
officially
održano
noga
neighborhood
kvalitetu
iztek
cilju
Mam
##onu
##ngu
une
razmjen
prib
prev
nevarnosti
moving
Ped
##ŽE
##ulu
vlagatelj
tjelesn
svjesni
služb
prijateljima
pesnik
nobenih
majke
increasing
dostojanstv
akcijo
Križ
Ant
Andrea
##sted
##slov
češće
zasebne
ukaza
tožbi
peak
kos
gospodarstvu
bgcolor
Ober
113
##sey
vježba
troškova
pravnega
onim
građevinsk
establish
domačem
Trip
Rece
Marco
##žena
##ktiv
##izira
##dh
##bank
Šve
vlasnici
sir
polovi
option
mek
izključno
glasbene
deg
blood
Mij
HSS
##ulj
##anti
vozača
teorij
tehnike
strategije
reading
predstavljal
određene
nel
modni
method
izročil
increment
ikakv
equal
drums
dri
Vatikan
Svoje
Krka
Grčk
##pk
ušted
usod
skupnem
prilagodi
pravom
namenjena
kupuje
Ian
Cas
zaj
zad
vlasnika
ukrepa
uključuje
ugodi
taki
rodila
razine
preosta
plošč
oružja
morale
jump
ice
Ontario
Mix
Bac
##tional
šteta
zate
zagovornik
vlastite
terapij
lanskega
koncerta
journal
japonsk
door
Karlov
##obra
##ilni
##ii
##arne
whi
stariji
samega
operacij
older
njegovom
levels
industriji
ilegaln
davk
bok
bene
Odv
Cow
##ption
##lem
##džb
zapušč
večeras
revizijsk
prebi
opisan
etno
dokumentacije
##La
##tež
##ičev
##ipe
zgrada
utje
rastu
prikl
prestižn
poslancev
nez
kreira
konkurencij
Solo
Pavel
Never
Mul
##sia
##kinja
##dila
voditelji
uspešne
twice
sudjelovanje
stope
predstavljen
mile
loš
konkurent
ključ
dviju
document
cijelom
OZS
Moh
##uće
##rž
##nej
##ljak
##enic
zauze
vloga
učini
predviđa
poš
pogodbi
minimal
leaves
koristn
gosto
določbo
VS
Takšn
Robin
Pob
Inde
Come
##rjen
##oži
##oviti
##mbe
##mant
##ješta
##dro
proposed
pois
ordina
nemam
kras
garaž
aktivnost
##uše
##lands
##had
tiho
sajm
pou
papa
ondje
mjestima
konje
kazal
globoko
ZR
Marijan
Koma
##inga
zar
prestan
pozdravil
odlične
izrazil
izdelki
dro
##22
##onsk
##mni
vjerovati
valjda
troši
povratak
kakršne
hour
draw
ZAGREB
Pand
Indi
##IČ
središtu
prigod
nisi
izbjegli
istega
grl
Pierre
Dum
##arin
studenoga
regij
pozdrav
pojedinačn
podal
opasnost
njezinu
hitn
1912
##ćom
spominje
snima
ska
rela
odm
oblikovanje
ispu
fur
Tou
Medical
##đuje
##učen
##rich
##org
vrtc
stadion
oš
ovr
nastavil
ljub
izboljša
glasi
finaln
Mick
Evropo
Chan
##31
##tnih
##icom
##final
pričel
poga
pobudnik
mist
koševa
društvenim
domać
borba
američke
adult
Mađarsk
##teen
##jic
začetni
uto
surrounding
programming
patent
omiljen
održavanje
mac
Rel
Primer
Pere
Morgan
750
##NJ
zboru
visokim
večera
pale
našte
naru
liječnika
library
jes
alpsk
ZAKON
XI
Pip
Državno
Dav
##šnjo
##ŠE
##đena
##rch
##pel
##nčn
##loško
##avati
životni
vri
tree
remain
profesionalno
pritožbe
preizkus
običaj
kvalitetno
gob
Kaže
Hrvaška
##esc
zbi
vezano
sen
ločen
državljan
depresij
Podobno
Murray
Before
Arti
##inar
zdravstva
svetl
poslovanju
opravi
odlična
nogometaša
minus
lyrics
gib
eko
Zdrav
Wor
Nara
Maz
##spor
##err
zadost
oboje
Wr
Tai
Sn
Mut
##25
##ão
##dbe
uporabil
poškodoval
pozicije
posredoval
obrt
mase
igračima
dvig
Vlado
Term
Stewart
Stav
Lov
Istanbul
Chelsea
Arc
##cionaln
znane
vključuje
uzr
spravil
pričakovati
pripravo
poza
poklon
odlučiva
muž
meh
idea
assigned
Dragi
##zio
##pal
##meni
##avlja
ženama
zadnjega
winter
vsebino
važni
tajno
prihvatiti
postaju
nabr
leve
hot
telesu
sjednice
različni
razbi
potroši
posluša
pismu
opcij
kata
izvaja
hea
drugič
diš
citi
cijeloj
ZV
Vs
Type
Fel
DR
Bot
##iške
##gt
zavez
ugod
tjedana
stock
restavracij
pričakovan
presude
nož
močne
miš
intersection
duha
##70
##nikom
##ines
wins
vnaprej
vladajuć
toplin
podjetnik
pari
nevarnost
ljudsko
komunikacij
izdelan
equipment
duhovno
djevojka
Zupan
Through
Poli
Mine
Jenn
Adria
##kam
umaknil
soft
narejen
lijevo
lake
corner
Beck
109
##rate
širše
tend
measure
kazenski
gradnja
djelovanja
diplom
connection
compete
Patri
Brig
##ijske
##ego
##alu
zadr
sail
ret
redko
prijavi
prejela
officers
gives
crven
alongside
Sna
Place
Lip
É
tožil
skloni
prostorov
predavanja
opl
napro
europski
boravi
američkog
Tho
Kosova
##Sa
većinom
ustanovljen
uspjeha
sela
retro
opor
namjerava
finančnih
exist
critical
Sek
Govori
Ath
##što
##vt
##raš
četvrtfinal
uređen
telefona
prometni
probably
preti
presl
ostavil
igračk
captured
MOL
Kab
Gradu
##200
##enom
žog
činjenice
zakonodaje
throw
strog
procesn
prei
pogovoru
odigrali
izpostavljen
definira
Taka
Mei
Engineering
Bene
Beat
Ald
##yja
##tura
##obil
##niški
terjatve
osebne
onto
napoved
londonsk
izraža
gostiln
fakultet
dose
civilizacij
Ven
Reb
Pris
Pittsburgh
Montreal
Korej
Dai
##šava
##uc
##avaju
##amin
završava
zaosta
treatment
rdeče
prirod
opravdan
nestr
ec
conducted
Zadnji
Nie
Nacionaln
##tora
##stični
##kani
zakonit
stranica
stadionu
sestavlja
pisanje
intended
bolnicu
Pope
Lit
Abb
##vorn
##pč
##dorf
zaro
spremljal
sinov
recognized
računal
popolno
pisan
panel
eva
direktora
avstrijske
agricultural
Vojn
Trstu
Sul
Singles
Nitko
Nat
Jadran
AL
##23
##kta
vremenom
uspel
slučajeva
poskuša
ogorčen
magazin
kontekstu
kamo
emi
arhitekt
Federation
##vam
uporaba
sastanka
prijel
piece
otkrila
nemamo
napisal
najjač
izvođač
compar
SB
##mak
##letne
začetkom
scale
plana
omogućava
izborni
imata
dosadašnji
compo
blagajn
besk
Woman
Century
CB
##lina
žrtva
zvest
stručnjak
sedmih
radno
pregovara
ovir
otvoriti
jugu
iskal
hokej
growing
glazbu
fos
exc
besedilo
Stri
Py
Glo
##ú
##nejši
##ndr
##ilj
tekmovanje
suho
razstave
povezano
ponuda
mojih
lastnosti
konflikt
izpad
hundred
dlje
Sabor
Petar
Dim
##liko
##ech
##azn
zakonsko
učinkov
seek
proslavi
prire
predstavljaju
padc
nogometu
dizajner
Meri
Aleš
##stij
##lop
##kcija
##hem
začet
turistički
taks
statusa
rešil
reševanje
prist
pjesma
načrtovan
liječenje
kopal
kamion
commonly
adv
Morris
Jurij
Dea
DS
Champions
Baseball
članak
zave
referenduma
pritisak
povjerenje
pona
pomagala
disease
blagoslov
UP
Južno
Gotovo
Fund
159
##njeno
zapisnik
uvjeti
ukrajinsk
smrtno
peč
neposredni
nedostaje
derbi
coin
arhitektur
Thr
Guy
Englesk
Comics
##tko
##jl
##ank
razmišljati
prodam
najm
jema
Teško
Steven
Sindikat
Primož
Prej
NLB
redov
promoted
porezn
mara
izvršit
družbeni
Torej
HTV
Eri
##uch
##list
zidov
whether
metode
imelo
grant
gimnazij
druženje
Zorana
Potp
##nili
##lova
##fri
##ever
##agi
vrstni
unique
stotine
redni
razširil
razvojni
počit
nosil
needed
materijal
masn
likely
dodajući
alergij
VL
Row
Moscow
Australij
Alm
##Be
##zb
##oid
##eze
čvrst
torb
spol
runner
pravd
očitk
napak
kontrole
izkazal
gostiju
glob
count
conflict
answer
Original
Okr
EK
Dugo
Dir
zatem
vidika
simple
odra
krož
kok
dizajn
Wat
Volume
##gent
človekove
topo
izpit
izašl
ekonomij
edge
akciju
Sig
Sid
Runner
Regiment
Nekoliko
Lic
LO
Honor
Ava
166
##zal
##vira
##mc
##lus
##jete
stranice
slan
racing
pož
poru
pok
medicinske
krščansk
krugu
jaja
fondova
Ov
Gate
##sv
##ojen
##nički
##jas
##hid
##fol
Žensk
čuje
zamenjav
tin
stanovanjske
spusti
rece
psihološk
prol
profesionalni
podobni
planned
partnerje
participated
lane
istu
Tir
Kome
Dale
##OSTI
##žene
##cial
zagotovi
sodni
ranked
pretres
poslao
odgovorila
mlijeka
mjesečno
aired
Vrijeme
Tož
Posl
Mann
HNK
Dev
Atlanta
##vari
##nemu
##heim
čakajo
sho
predložen
kolač
hvala
benefit
audience
Vran
Thor
Sing
Roo
Merkel
##rad
##njske
##lite
športnik
uj
telesne
sukoba
sportsko
slat
rani
presenetil
plot
paid
definitivno
anal
Hul
##Li
##čara
##stvom
##jol
zvijezde
vzpostavit
versions
uvjeta
uspešni
robot
priprave
podlage
nadbiskup
malom
losing
linija
inform
globalno
administracij
Krim
Emer
Bow
Bal
##ppe
##jska
upisa
ul
things
tajne
square
režiser
ravnotež
posojil
področjih
nižji
navedbe
learn
lagano
kaznivega
financiranja
bolečine
bob
besp
awards
Revolution
Poland
Baby
Agen
##itt
##eks
zlom
zbornica
zaposl
wear
ugled
postelj
dopun
delujejo
danima
Hrvaškem
Entertainment
Domžal
Aba
##LT
##čeval
##esh
##div
švedsk
zabrinut
umrla
tehnologijo
sprašuje
review
reprezentaciju
punk
preprečil
praviloma
povezanost
pokrenul
lastni
izkaz
gained
exce
Corps
Bošnjak
6th
##orsk
znamk
zabave
valley
uzeti
unc
tvoje
tona
says
rup
poljoprivredni
odbil
institut
aktivira
adopted
Report
Math
Gosp
##80
zastupnici
umetnost
sklop
mestni
krenuti
dokazov
Have
Charlotte
##site
##kas
zainteresiran
rise
revije
opozarjajo
motori
letalsk
champion
SLS
Gur
##škim
##vol
##bot
tretjega
theory
skupne
roles
reakcije
razmišljanja
propis
nahaja
kažem
izpolnit
inse
dečki
arts
address
Sele
Kul
Dri
##far
##arić
ČE
uzor
trećin
sno
singles
seznanil
poto
oprez
kazališn
izražen
dostopn
bronze
bliž
Sami
Kn
Kent
Epi
##novi
##fs
znate
vodom
shel
razumije
podatak
planin
ostav
kadrov
eng
archive
Zv
Udruga
##24
##vajo
##edi
zape
verjame
upis
priopćeno
počelo
forward
epizod
dostav
določbi
dokazn
civili
##ozi
##išču
čustven
vstopil
ugrožen
strogo
samostalno
prvoligaš
imovine
gledaju
Ts
Naše
Hunt
Hon
##ree
##jenju
situation
prvenstveno
occupied
lastnin
kuhinj
izvedel
izob
Hrvaške
Henri
##nse
##hot
đ
čudo
realizira
proc
odbaci
nalogo
komentiral
Sap
Aur
Arn
##pra
##ncij
##kš
##cor
Švic
vlasni
rojstv
predvidoma
poda
neprav
napomenu
naplat
nadu
mač
gradnji
feet
enajst
Zah
Shel
Key
Due
##ration
##ison
šalic
ukrep
turšk
th
tez
stranicama
skladišč
režij
praksa
povprečju
postop
poro
popisu
participa
kapacitet
Roll
Mursk
Kovačić
Domovinskog
Common
Colorado
133
##tven
##avic
zbrali
vezn
trebamo
prikazal
plodov
nastavni
naselju
exchange
connected
ambicij
Work
Janša
Doctor
Crven
240
##unt
##kti
##ente
življenjske
šok
zor
zakonitosti
zado
smučarski
ponašanja
pažnju
otprilike
nastopila
istodobno
Vita
Tožeča
Total
Pomo
Ice
##mete
##enega
životno
štirimi
zapr
zagovor
vedeti
tekstu
syn
stanica
putnika
omi
note
izra
inflacij
bogata
ability
WA
Soli
Belo
zavarovan
stana
srednjih
pristan
podpredsednik
olimpijski
možgan
jav
entitet
boys
boriti
Varaždin
Ing
Crno
Barry
vrnitev
vključil
sukob
obiska
interesu
dječje
completely
blagovn
Ope
Gabriel
Census
##rdo
##hra
##ashi
troje
tehnološki
sedel
ravnal
prehrani
maksimalno
lagan
konj
Harris
Finsk
AF
163
124
##NIK
##noz
##jević
##itiv
##ides
veljav
umetni
sudjelovali
soldiers
skupnega
polja
padal
odgovore
katoličk
jedinica
dodati
crveno
Združenih
PDV
Koš
BIL
##IR
##tos
##aren
žalb
uo
splitsko
rumen
pristal
podobo
papež
kroga
krivo
droge
Vid
Ukoliko
Kum
##stor
zajedničko
vredno
typically
prijateljic
odpovedal
njun
mobilni
kun
kat
hitrost
bos
Studies
Rap
CP
164
##Se
##kah
vzel
pul
potrdili
pode
plo
ovisno
okrogl
miješa
konkretne
dostavi
broke
bend
Neza
##hold
##aries
činjenicu
peter
pati
offer
nastali
mus
ministarstva
ključne
izkušnja
ispunjava
francuski
flat
avt
aro
Sas
Pola
Glav
Fame
Carol
##šnik
##mena
##ljub
##jevo
zau
watch
sastavu
razviti
projektov
pripadnika
price
nekdaj
kompromis
istr
ink
fant
ZI
Nemčija
Jožef
Hamm
Farm
##vas
##jelo
##esta
uništi
territory
struk
severno
pripomb
podpisal
kruha
izdelke
dosedanji
Raf
Neb
Janko
Izn
##sive
##rok
##jenim
##ijet
##grafsk
terminal
ravna
pik
nižje
najboljša
growth
dod
broad
apsolutno
Vjer
Secret
Pha
162
##17
##ntin
##msk
##lig
##jil
telefonski
tehnički
resor
reso
radnog
polako
laws
gridcolor
diplomira
Production
Drav
Arena
##tir
##tici
##pie
##dnje
četrt
tenisač
stream
spell
socijalno
posu
osmin
međunarodne
knowledge
javnom
izazval
gum
gt
environment
duž
dele
counter
conference
Vod
Sabora
Mirn
##čet
##ođen
##lca
##ield
##eran
značiln
vice
tol
southwest
posamezni
odnosov
obvezno
obra
najnovejš
models
domovin
denarne
Zal
Transport
Kus
Bist
##vate
##ljava
##ivač
##ien
##gije
štirje
čudovit
zakl
učenci
ulozi
true
pridobi
poklical
poglavj
okrepil
lightgrey
glad
družbene
drugačno
crni
Wea
VO
Ore
Care
App
173
##ersk
zapleten
sačuva
rowspan
prekinit
potpisa
menjav
klo
družinski
Kopr
Flor
Carn
Bai
suprug
režima
ramen
potpisao
posud
postavila
picture
peace
organov
najra
generation
expanded
dokaze
darkgrey
attention
OV
Javn
Helen
Gau
##ZU
##light
vojnika
snijeg
slabše
sindikat
proveden
priprav
prijatelje
poznan
oro
odpadkov
novost
narrow
izvršb
defense
ate
Th
Nei
Jerry
##ush
##smo
zasebno
preu
poljub
pesem
igralce
Jav
Hungarian
Children
##veno
##roz
čvrsto
zatvoreni
wr
vitamina
važ
uvrstitev
stiže
sprejme
skrit
rules
priznao
premda
plasman
krav
kongres
brig
aktivist
Ministarstvu
ER
Dad
Brothers
##uf
##sio
##orno
##jaci
založb
pridejo
opcija
obvezni
načrtuje
napredn
kristal
duže
develop
analiza
aktualno
Supreme
Sign
Gorice
CBS
116
##stat
##rač
##lb
##ična
##ink
ruši
ren
istrage
doctor
baviti
Iv
161
##mov
##lini
##iza
češk
sestavljen
postaji
odlični
naravne
museum
mokr
kriterij
koncertu
drugačne
difference
Wing
Kau
Instagramu
Ine
IR
##Ch
##ș
prevr
Sweden
Slovence
Najv
Metropolitan
Magic
##ratn
##kur
zavo
voditeljica
vinograd
umirovljeni
trees
služe
pogum
označ
nastane
musliman
izračun
gran
governor
Scr
Patt
128
121
##wal
##ravno
##phone
##jeć
##cted
##agu
zaštićen
učinak
ugledni
trgova
tisuću
sedeže
podsjeti
opus
moli
išl
interneta
gradski
drugačni
coloni
Sarah
Iron
Dha
Cara
Afrik
##MB
##izacije
##iranih
##gaj
##eric
##enzi
##dos
pokojnine
photo
odločal
odjel
niž
mesecu
manja
kćer
izdala
engineering
dodajte
Soci
Parti
Gin
Europ
Comm
Bari
##OT
##zard
##uno
##uki
##hran
vrtn
vožnji
udaril
symbol
svemir
sudbin
prob
pripravljajo
povsod
očeta
elektri
efforts
domačin
dokumente
dejavnik
combined
Stani
Pravil
122
##tali
##olj
##kala
##izm
ujel
sudionici
spla
posel
poravna
občinske
nogo
dolgi
column
ap
ano
Vjerujem
Building
##ía
##water
##gro
velikem
takšnega
struktura
slow
sestavin
povezan
nenehno
naredila
merged
Yi
Uprav
Jennifer
##yb
##vine
##ight
##erna
zaključen
zahtevajo
vašem
ustanova
tros
sljedeć
potrdit
pojasnili
plaćen
onog
odstopil
municipal
ideologij
desnic
acqui
Peti
Hero
Biz
1907
118
##ias
##ener
skuša
satima
razpo
piva
organized
olj
obavi
nastale
magnet
konz
hrib
družb
Mana
Kole
Alf
114
##41
##tho
##kir
##eon
zanesljivo
zadev
učinkovit
trail
providing
prostovoljn
opravila
nezadovolj
emisije
emb
Stat
Margaret
##SN
##No
##zation
##stički
žlica
šli
vložila
uspješn
studenata
reprezentativac
pripoved
obv
gradben
autocest
Knjiga
Europskoj
152
##šao
##uv
##uba
##tljiv
##tivni
##ony
##eren
zahtevala
turns
strength
starije
slišati
predmeti
naložbe
makar
krč
kadr
ionako
garden
elementi
brodov
Oma
Europskom
Compa
Bren
Boštjan
##čnu
##lati
##jit
##alna
vrši
string
skrivnost
priporoča
involve
igralca
fields
doživel
donijela
bogo
Range
Multi
Jedno
Doo
##ZN
##eza
črni
vul
suradnja
slovenščin
pogovori
područjima
odrek
kuhar
iš
Jezus
Full
##fir
željeli
umik
tarif
sup
saying
pravim
potrebnih
pliva
padel
naselje
kislin
dobrot
blat
audio
Military
Antun
##tam
zva
velikoj
uključi
spoke
prison
prepričal
plod
nastavio
Wayne
Marl
Kdo
##ipi
zasluž
telefoni
presence
poly
parti
otvorio
novine
mrežo
močni
gubitak
galeriji
fantastičn
Republika
##р
##kum
##evali
štiti
ulaska
ubi
tožbeni
susjed
slovenskim
prepoznati
posega
newly
istovremeno
Stefan
IA
Cart
Burg
##NIH
##vost
zgodnj
zao
zadržal
zadać
stadium
restaurant
poni
kv
knjig
gru
glasovi
doživljava
compa
Orleans
Laško
Buk
##UR
##čnosti
##čari
##jč
##jac
##att
četudi
viši
uvjet
ugotovila
strada
ped
osebo
nekega
medij
cc
Tov
Saturday
Lauren
Hou
Gleda
Dil
##ppo
##olje
##nati
##ication
##gd
##els
yellow
spolni
sloj
roki
predp
pora
partnerstv
odlaska
natječaja
nakit
kolen
izve
ins
desk
desetljeća
bave
Zagrebačko
ZUP
Vul
Občin
Mea
Bade
1950s
##čnost
##wit
##tun
##sit
##lud
vremensk
strahov
pritiskom
poremećaj
pomagajo
političkim
podlaga
osmih
odru
izu
ispitivanj
inzistira
gršk
ara
add
Sic
Nada
NAS
Gli
Cent
##snik
##evu
##atel
ub
tesno
svježe
prometnih
ograd
formula
Trav
Suk
Nations
Katar
1913
##zli
##where
##jka
##demokrat
zavarovalnic
usred
urejanj
presoji
posvečen
posebni
petka
odda
obal
largely
jelo
istražn
ispunjen
držati
baterij
Planet
Peč
Mlad
##iši
##cl
stopnji
slaba
različic
pisati
optuženi
objavljena
mineral
Review
Ole
Mata
Indij
Front
weight
voz
uradne
suffered
rail
prekri
političkog
nasl
lijek
condition
Vida
Vat
Svetovn
Gul
##lil
##ići
##davn
želela
Štu
zaposlen
surviv
strinjal
skrbel
prenehal
pošto
osjeti
koč
doseg
delodajalec
delegacij
Vog
Mobile
Izd
Evropska
Among
##à
##glo
##bt
tovrstn
tednu
technical
svome
stručn
slavlje
račune
prizadeva
presenečen
poznaje
posluži
mlad
mestom
lud
koprsk
konstrukcij
kept
graduate
gostima
bojn
Netherlands
Arb
##De
zmanjšan
zaposlenika
ubiti
rdeči
proizvođača
pobjednik
oli
odbio
klic
izvršen
instru
grčk
građansk
extend
donacij
agencij
Zg
Wel
Though
Ik
Francuz
Commonwealth
##lete
##istan
##hum
##api
žep
zdravniki
varnostni
tig
shape
relevantn
marsikaj
invest
elements
descend
bolnikov
Wit
Republici
Dalmacij
Blues
##St
##IJ
##rene
##lac
##enij
žil
šir
zgodovinski
zdravnišk
viđen
stabl
sodiščem
posameznikov
odkrili
najdemo
morju
expe
doživjel
brad
avoid
Vrat
Rdeč
Hills
Bern
##SKI
##sp
##iya
##here
vu
therefore
središče
podpore
odnosima
nijedn
molitv
moderne
dogodki
atom
apo
allows
Stipe
Oklahoma
Mori
##90
##vem
##unta
##ljaj
##kne
##init
##hav
##anta
zasled
zabrani
stopa
prebival
pojavlja
orožja
kupce
komor
izdanje
dogodio
Springs
Pik
Izra
Garr
##šenje
##hill
##eim
zah
uput
rekonstrukcij
ordered
mirovinu
ljubitelji
krem
gov
gornj
dvom
colour
Rot
Ronaldo
Maryland
Ita
##rob
##mk
##cep
Čini
vrednot
vodilni
roditeljima
restoran
pros
pog
pattern
omogućuje
okupil
izvoljen
il
enota
bolja
advanced
Student
ALI
##čine
zdravljenja
upotreb
tržišn
simply
rečenic
narobe
ly
launch
kupnj
knjizi
kick
izli
hidro
duši
Varuh
Tiger
Rub
Rou
Preve
Europskog
Ek
Cerk
zamudn
zac
temeljito
stisk
potrudi
poročanju
poma
ostvari
organizirali
nesreči
kontrolu
izb
iskaza
faza
enostavno
asfalt
Tav
Lijep
Hip
##SP
zalog
votes
upu
uns
sl
security
romantičn
polje
pogledajte
otvaranje
centraln
blo
Romania
Prip
POD
Lost
##tsko
##kro
##itvi
##cjen
sreča
sindikati
sap
priprava
priest
počaka
posad
porezni
ponudil
performances
m2
Nord
Milo
Album
##Me
##vljen
##reš
##jeda
##eck
ži
šolsk
zme
vzgoj
umir
proračunu
propo
pronašli
posi
ozemlj
nekje
nakaz
koža
kni
kemijsk
javnem
izobraževanja
glo
dogovoren
dejanskega
bor
Zdenk
Walker
Uprave
Mind
Legi
Coach
Bruno
Brd
Alexandr
18th
##ŠN
##tični
##quir
##lement
##late
##fun
členom
twenty
sjajn
prispel
palic
mixed
krizi
komentirati
dužni
aku
acting
Pavl
OR
Cri
Agencija
##tej
##liča
##laš
##kcije
##jetni
##iž
##fied
##aste
verig
tall
stavka
sag
poz
postopkov
odšel
nočn
kla
idi
celic
ann
Predstav
Nazi
FIFA
##igi
##cijski
zanimanja
ustanovil
ubojstvo
stvaranje
seksualno
razumel
popularni
explo
exe
dolaska
davno
birača
bea
afer
Vene
Ruk
Nagrad
Glob
Franci
Abu
##vd
##jut
##až
uzv
uporabn
spustil
slog
ovlasti
onako
morning
kartic
ends
djecom
Teo
Istri
Elementary
Avstriji
Arma
132
##NG
##KL
##eden
zmore
tipk
stoletju
slam
propisan
predstavitev
plen
očisti
odsl
odraslih
nominated
namirnica
klin
iznim
gnoj
duhovni
bist
Teh
Rosa
Prizna
Lek
Historical
Disney
Božje
1908
##gma
##cts
sexual
procjen
preda
osmi
odpeljali
obnavlja
jagod
guard
glasbeni
fond
elit
Vrhovno
Stanko
Nastav
Matija
158
129
##vir
Štefan
časov
zaščiti
vedeli
ujet
preuzeti
porod
pohvali
podne
nazvao
končni
izvodi
html
gara
animals
Rimu
Kerry
Gospodarsk
Bole
Af
Aero
117
##GI
##yne
##viš
##ujoči
##aži
##amb
zelene
unknown
stri
predstavio
pokojni
parku
opazoval
facility
enjoy
Skupina
Poljske
Bug
##xo
##mern
##iol
taught
splošni
različnimi
putni
prodal
endo
društvene
Then
Maribora
Italijan
Israeli
Data
Aut
##zit
##stič
##nula
##ijeva
##cta
##any
zapov
widely
slabih
regulira
nagradi
jezi
Terry
Rein
Pant
Market
Jeli
Igral
Eye
Agr
##unda
##ovec
##eng
vrijedno
tea
suv
soo
siromaš
osmo
nagl
hrvaške
bival
Students
Meh
Make
Campbell
Avstr
Aga
360
##yp
##ific
##chm
zaupa
turistične
stekl
slaže
proizvodnji
padl
opravljen
literatur
izgledal
gozdov
filmi
delavca
confi
Vocal
Step
Square
Plav
Phoenix
OI
Jelena
Gorenj
Bert
Because
123
##ošću
##bili
sveže
sukladno
straneh
spaja
raziskovanj
poboljša
pali
klasične
izdvaja
bull
Mang
Lawrence
##trac
##ques
##abi
četvor
varuh
sporta
snimljen
savjetnik
resulting
preto
ostank
opraviti
održal
oblo
mrežu
mladić
mijenjati
matičn
kol
generala
fully
dvoboju
angažiran
Vedno
Tamil
Poznat
Klemen
Kitajsk
Five
Fas
##rick
##pers
##ničko
##laj
##grafij
vero
svo
setting
rezerv
posjeta
političara
pišu
kulturi
jedni
islamsk
drugačen
dovel
besplatn
Vic
Reve
Narodn
Asa
##owe
##gali
##fare
zgradb
vzame
ume
trgovinsk
srebrn
serious
regija
policijo
osrednji
nezavisn
navadn
hope
dodat
dečko
denarni
Zat
Tisti
Pit
Mare
LI
Hid
Dunaj
Chamber
Celo
ATP
1905
##OD
##žij
##ovite
##menta
zahtev
preživi
pozvan
osjećam
oldest
krađ
hodil
drukčije
dogovori
besplatno
achieved
VII
Sveto
BS
1906
##xy
##nese
##ille
##evn
zagotovljen
tvor
stalne
slabij
prove
programom
pripravljena
prebr
pogovarja
perspektiv
osvoji
ostavi
obisku
mon
entitled
dijalog
Josh
1880
##ugo
##sso
##anic
tuđ
terorističk
semen
revolucij
respectively
prispeva
positive
mno
lun
communication
commission
chance
britansko
Tag
Kov
Jeste
##с
##hari
##edno
##atu
zaostal
vreme
revizije
qua
pravosuđa
ponavadi
pobijediti
pisali
očekival
odredb
nastavi
moštv
kandidira
izgubiti
istem
golov
begun
Sean
Saša
Pana
Ljubljano
Kosovo
Europu
##lah
##dm
##dane
younger
wors
umrlo
sposobni
samem
ritm
najvišji
ljetni
laser
krenuli
kosil
jar
glasnogovornik
dobilo
Ostojić
Hun
Coll
##upan
##god
Željka
rain
predlagala
omrežj
mito
medsebojn
lock
količino
klupi
heads
elections
dovoljen
decline
Suda
Reg
Mans
Centar
##IJE
##ı
##zmu
##pus
##leda
##kratn
##ement
##bod
##blja
šte
zu
tržiš
trajala
tail
royal
reakcija
proljeće
premagal
nedost
istaknuti
hrbt
fish
financijsko
effects
baz
Trgu
Priprav
Gh
Executive
##DR
##uso
##rovi
##rig
Škol
vodn
vlaga
sabor
razstavi
puk
pron
pozorn
persons
odpo
navadno
limun
iskus
dramatičn
Vijeće
Stars
Radni
Prat
Kakv
Cijeli
Chai
##ét
##gn
##ažen
uzrokova
ukraden
tehnika
promote
primerne
preno
ostan
okolice
nuklearn
nasprotno
izvirn
isko
instrumental
drobn
bombe
bližnje
Soul
Magazine
##Ne
##ŽA
##not
##gira
zapadno
rdeč
poznajo
outl
odr
navedbah
maraton
majstor
devi
Rab
Lojze
Cook
##Vi
##rda
##omen
##lce
##het
##evanju
##cou
##col
##cis
terja
sporedu
sk
ribe
opazi
obre
nimalo
glazbeno
geni
fizik
dresu
delegat
Tul
Bobby
Baron
119
##ury
##smi
##ijel
zdelo
vjeruju
vabil
tekstov
sudar
skuplja
priči
oddelka
obnove
maslac
kazališta
gal
deficit
cop
civilno
Shir
Puli
Lev
Lep
Kaz
14th
##žemo
##rca
##anij
zaboravi
ulica
ubil
tipičn
sul
stanova
obožava
nezgod
liberaln
lestvici
ispričao
delih
communities
Oto
##Mo
##tl
##ostn
##cid
zale
vodenje
ustanov
uključen
točkami
tople
reno
predviđen
predsjednikom
potrdilo
pjevačica
pitche
odlučiti
novčan
nekretnina
merit
kvadratnih
kulturu
bran
Zd
Ministrstvo
Hein
##zijsk
##oir
##lada
štete
resulted
prijazn
pomembni
politi
ozbiljn
muškarca
ishod
Wai
Mim
##Ro
##ough
##jk
##inske
##ekl
##anić
zmeraj
zabranjen
trenerja
summit
succeeded
starejše
reserve
računi
naložil
moderno
kiselin
izvesti
izboljšal
eto
boc
baštin
balet
Rev
Reci
Inte
Emp
Dodik
##tnost
##lai
znamenit
stopnjo
pokalu
passing
optuži
odškodninsk
lokalnim
dre
dokumenta
automat
accepted
HD
EM
Demo
##adnje
Šk
urediti
spar
resne
reduced
prognoz
prili
odstotno
neuro
nestal
nemir
micro
konzumira
formira
ending
Sandra
Rah
Premda
Meli
Crkva
##žje
##jne
##epl
##dav
##alin
zračni
znanstvenici
zavrnit
viša
taksi
splet
sides
projekcij
potrjuje
pokazale
omeji
neop
ladj
izvršn
dodatni
ON
Marije
JPG
Gordan
Fol
Ent
Agencije
153
##ŠA
##ovk
##card
čase
vzdrž
suburb
rot
prisotnost
prebaci
potovanj
ponoči
ostatak
neuspje
iger
dolini
demokracij
crn
burz
barva
Zh
Than
Nelson
NC
Kost
Graham
Further
DDV
169
##šču
##vač
##vaj
##rova
##pte
##nger
##naest
takvog
rezultatima
kune
girls
feed
državnom
civilne
bill
američkih
Zrin
Vegas
Jonathan
AV
1890
##čila
##valn
##telje
##rmi
##mpl
##akn
spremeniti
sens
resničn
ram
preventivn
obrtnik
napravila
mehanizm
istaknula
gorsk
djelova
atmosfer
Rast
##ovar
##dnevni
##aria
većine
privremeno
predstavitvi
pozicija
poskrbel
obred
nizozemsk
namenil
komunist
funkcija
disciplinsk
delovna
davčni
cerkev
Wu
Vukovaru
Tennessee
Start
Barr
Aten
##čili
##nto
##apo
##ajal
##abe
štrajk
razstav
razgovarali
pridobiti
presoja
povuk
okraj
okolnosti
neraz
nare
komentirao
ZOR
Mission
Imperial
Harrison
Brus
##vla
##jšo
##fra
širok
Špa
četvrtin
vabi
tražili
storiti
podl
označen
nutri
moć
klinik
interpretacij
doživlja
ane
advis
Stvar
230
##uplj
##caj
##bly
vredn
vesolj
trajanja
strukture
struj
slobode
skupo
razma
radimo
posnel
modul
electronic
edino
dolžin
dogodka
delodajalca
Tomo
Sov
Prese
Lokomotiv
Gou
Gaz
Between
##OP
##zul
##yle
##ulin
##off
##bis
##abil
žrtava
žestok
Živ
čr
zavest
tort
sodnega
predvaja
pravilnik
outs
organisation
morje
luka
hockey
dokumentarn
barra
alter
Jes
##tua
##tage
##pac
##niš
##emb
uda
stisn
revol
prirodni
prijavu
potreboval
održat
odpravil
nezakonit
logor
jud
injury
custom
crkven
cool
Former
Doc
Damjan
Cai
167
145
##PN
##ličn
##lije
##ivao
##ačko
zapošljavanje
uzgoj
switch
prehramben
pokopa
nej
mast
hormon
crkvi
Vukovara
STR
Prior
POL
Liberal
Hercegov
1909
##å
##uć
##nell
vehicles
taka
sov
socialni
premiere
policijsko
otkriti
ostavio
opozicij
oglaševa
obdobja
honorar
gradske
Zlata
Rank
Opo
Lj
Jasno
Io
##hla
šesti
zahod
upam
sprememba
materials
maraka
kota
genocid
folk
constituency
Vari
Syn
Moramo
Child
##Na
##ziv
##pod
##džić
uvr
uspor
traktor
smiselno
razširjen
pritožba
prihodk
prehrano
obstajajo
navzoč
namer
moto
informira
guide
enim
cest
Services
Povr
Meg
Lind
##čl
##zr
##ument
##stil
##rag
##racij
##nor
##dali
zadržan
your
uređaja
testo
sar
priz
prefer
predavanje
plesal
istoj
inozemstvu
hrabr
enc
airport
RAF
Leve
Hrvaško
Francuska
Dori
Cove
1902
##tec
##oral
č
znanih
svojevrsn
sjeti
razumeti
rasprave
prote
prevlada
padla
omenil
obiteljsko
naučil
krajih
formation
filmsko
edin
družinske
dolgotrajn
chor
Pita
Lock
Jura
Cru
Cont
Adrian
##Al
##sition
##cula
##bič
##aciji
zakonito
vrednote
stars
socialnih
retr
postoja
pokušati
obrestmi
konja
kamera
finds
dnevu
buy
bjež
ansambl
allowing
Verd
Tower
Prepričan
Jol
Bivši
16th
##Wi
##vnih
##viti
##mun
##ix
##graf
zaostaja
režiji
prinesel
povrće
povezovanj
ovakvo
odrasli
najpr
ljubitelj
ine
depict
convention
SU
Peak
Kennedy
Kadar
##Further
##žava
##wle
##sex
##ječ
##jedno
vehicle
utjecaja
teška
televizija
supplie
stric
safety
prinesl
presel
poniž
okusa
krst
kmečk
jet
Gradsko
Gla
##neč
##dera
zbrani
smemo
riješi
potrošač
ponudili
pomislil
poku
podc
onemogoč
obtožb
maslin
imi
govorila
buried
biljk
activity
Evan
Economic
Arabi
About
##eau
značajno
vej
uresnič
spori
qualify
pregovora
organizirati
nenavadn
nasiln
karieri
kari
gne
gledalcev
evolu
creation
bolnišnici
USKOK
Silva
PlotData
Nadalje
ML
Kare
Him
HSP
CH
##force
##eut
##dobn
štart
ča
spoznanj
socijalni
resni
pomir
napačno
kilogramov
jas
ens
deleže
Senate
Pec
Hawk
##čas
##eso
##edn
Želi
čip
spomen
ritual
oslobodi
odri
načelo
najboljim
lay
grm
angažman
absolutn
Wie
Tommy
Speci
Oda
Hur
Bara
127
##lija
##hea
##ely
##ece
zve
vremenski
svojemu
smanjuje
raspo
preuzeo
pratil
limuzin
jednostavni
glasu
classes
bought
angle
Unit
Sou
PlayStation
DU
Carri
Brat
##kovsk
##jel
##ivali
##eža
##dž
##dent
##dej
##cur
Španij
združenja
vašeg
utr
trpi
sixth
shvaća
republik
priznala
prešl
predhodn
pisc
moške
mašt
mat
kreativn
kraljevsk
educational
dovo
dono
Lec
Daw
##rer
##nira
##ette
zabil
vojaški
usm
upoznati
terena
stood
sestal
republi
postav
nosilc
nata
krije
deklet
correspond
cjelin
Zlatn
Včeraj
Sabha
Odbor
Kori
Hina
Francuskoj
Anc
##UP
##OB
##CO
##kers
##enost
##cated
##bila
ugotavljanj
specijaln
povečanje
potvrđen
opozorila
odrasle
mrtv
legendarn
izmjene
dvojic
banko
Sast
Fakultet
Državni
Dob
##uu
##oca
##gation
##dad
šeste
utječe
tež
prele
poštova
oslab
nepremičnine
materialn
jači
izpolnil
gledali
duhov
dalmatinsk
brea
Ukrajin
Iraku
131
##zme
##stavn
##ined
zaustaviti
radila
posljednja
podrobnosti
njihovoj
ljubitelje
fil
dogovoru
biznis
Rudi
Adams
##član
##tie
##teria
##sea
##mila
##arjev
veleslalom
saborsk
claims
cerkve
Srpsk
Krešimir
Kolo
Haa
Fond
Command
##Lo
##ščina
##zacija
##urr
##stik
##ljn
##hk
##cate
Đ
spoznaj
smiju
remov
ostavku
nekada
narodi
napačn
modro
hyp
faci
duše
dirka
debelo
cep
bel
Vsekakor
PM
Olimpij
Nai
Kasn
##mini
##lve
čudn
vzd
učinek
ulicama
smeh
selektor
rene
prezentacij
predsednikom
političku
pokazatelj
nogometno
nekoj
mislili
mehani
lobi
learning
humani
gala
eksplozij
dosežen
comp
amb
ago
Save
Rangers
RC
Općinsko
Hrvatima
Guide
Društva
##čiš
##mond
šah
wor
veselje
važnost
užival
uveljavit
univerze
troškovi
tiskan
siro
sell
reb
ratifi
prospe
pripoveduje
nit
nari
najl
izraelsk
granted
dražb
določba
Naga
Linić
Banka
Americi
##pped
##nina
članovima
zagovarja
voća
tried
tar
sudjeluje
stranih
starejših
srbijansk
rodu
priredit
okruž
objekata
logo
klubov
glavom
folklor
družbeno
doživ
dek
Vesel
Sep
Roz
Lincoln
Dos
157
##čana
zasebni
udeležen
sekcije
poražen
kralje
hiš
hitreje
fans
dvos
dragocen
Upam
Slobodan
Rav
Dali
##ntsk
##lee
##elin
vpisal
uvođenje
stvoril
sobo
purposes
primjen
prebivalci
odgovorno
kakrš
izravn
izplača
hunt
clo
begin
Zr
Policisti
Kno
Digital
Athletic
##pun
##ljam
##ićem
##izacij
##aše
živel
razpad
isplać
gang
Vrlo
Palace
Kralj
Bh
Arch
##KOV
vonj
uredb
tvari
trebale
spu
predsedniku
potencialn
postre
posameznika
negativne
nabira
kupili
komunikacije
klan
bolnica
Verjetno
Troj
Sme
Ovdje
Municipal
MMC
Knin
Haj
Dansk
##sda
##ean
##aval
vezane
uputil
ugovore
ugotovljeno
pridružil
pridruži
preporuk
pozval
povrat
povijesni
odg
korijen
govorni
fashion
dobe
brigade
agen
PG
Najpo
Larry
Kis
HP
Donn
Bistric
Alv
##ovske
##nst
##metr
##ljev
vselej
uvedb
tov
tir
spremenilo
rehabilitacij
popu
pacijent
olje
nastalo
minil
kriva
integracij
govorijo
drv
dete
Turb
Local
Crkve
Cad
Austrij
##32
##čane
##rku
##klu
##ikal
##edu
škoda
zagotovili
umije
telesno
svlada
stavi
sprehod
sladk
narodu
napet
knjižic
enotno
društven
declared
Sanja
Pont
Laura
KON
##stične
##eča
započeo
trgovino
subsequent
strateg
software
propad
positions
poka
occur
obrazloži
neve
naslovi
nadomestila
licu
kvalifikacije
ZS
Schi
Bond
##ŽI
##rde
zaustavi
zarad
svrhu
savezni
presuda
pev
performing
otkriven
načeln
kock
kant
hy
holds
fiction
committee
chairman
Ny
8th
##To
##pas
##ogue
##elle
vidljiv
trdn
stalo
predčasn
pere
motivacij
lanski
kazna
izgradi
indijsk
hišn
gostil
dodali
Podravk
Daj
Brooklyn
##valc
##paj
štednj
čuo
težava
tell
spisa
session
rugby
religion
powerful
neis
nadaljnji
mišić
eat
alternativn
adapt
Zemlji
Reso
Mav
Deli
Bass
Američani
Again
##ščan
##nož
##nast
zaključil
učinkovite
srpsko
sodba
propagand
prince
očit
olja
odpeljal
obljubil
nogu
nekakv
minuli
kvot
izpolnjuje
ispuni
centimetrov
agreed
Visok
Kosta
Itali
##rev
števil
uslužbenc
trgov
traga
stigli
poteza
pojma
plaz
nujn
najboljeg
kuri
konkurenčn
fighting
fakulteti
dužnost
domo
davka
cjelokupn
bonus
avantur
aff
Sklad
Sed
Lisa
Islam
Erik
Ast
##štaj
##zda
##rant
##lira
Čer
sudjeluju
stvoren
spro
selu
razs
pomanjkanje
pojed
ograničen
nastal
mes
hel
enemy
državami
diskriminacij
brothers
Zvonimir
Trgov
Record
POT
Mother
Mato
Evans
Das
Arizona
##veri
##uca
##stru
##pto
viz
seem
rezultira
realnost
raspoložen
protokol
pogodio
podaj
odavno
dež
bistvu
Zab
TAKO
Sofi
McG
Mama
Jacques
##AC
vla
vadb
struktur
stilu
primio
politična
petdeset
novinari
kozar
korištenja
imalo
examin
doktor
ZKP
Released
Rag
Potreb
Osm
Izj
Intel
Control
##zad
##km
##jaln
##dnost
##cijske
##cao
Švicar
vhod
tvrdnj
skin
sentence
prihodkov
potrošnik
pjesama
niče
mrežama
marsikater
loši
državljanov
census
applied
Utah
TEM
Rest
Grup
Cul
##pres
##ously
##ntu
zvezd
zasi
vinar
tednih
stanar
sestavi
seli
počiva
pogledal
pištolj
operativn
izpodbijani
izbrani
elitn
af
VP
Petrović
Odjel
Gray
Artist
041
##šč
##uss
##erc
veljajo
uvodni
sor
predizborn
potrebu
pobjedom
pisanju
otkri
nedostatk
avstrijski
Sest
Rugby
Krista
Info
Gost
Francija
##ziral
##reć
##ovor
##gene
##anim
čitatelj
zaposlene
većini
tje
subot
snažno
sed
samozavest
različno
protection
podatek
obnaša
marke
luksuzn
gledatelja
dopušten
Seg
Pink
GI
##šteni
##uko
##stit
##ows
##adn
četrtfinal
začasne
učenje
stajališt
slep
plaću
ovac
odloč
odgovoru
nagn
chain
Uh
Ples
Lyon
Istina
Colle
Amsterdam
##sure
##arsko
span
resi
radionice
omogući
legitim
izpoved
gostje
ekskluzivn
dobijo
begunc
astronom
Uostalom
Tekm
Gai
DP
Amb
##šj
##čer
##uja
##olc
##ljic
začenja
začele
volonter
vloži
uporabljali
stud
registriran
razvijen
radionica
pogod
opazil
obveznost
hop
heroj
gospodarska
domačega
Tara
Peking
Avto
Autor
Ata
##čnic
##zdi
##usta
##nm
##ats
čes
zavzel
usmerit
sense
seksi
razlag
ravnanja
preuzimanj
prestolnic
povodu
pomembnih
pojača
organizations
nesreča
nedelj
leaders
kmetijske
itekako
imat
Roc
Odd
Moral
Lia
Hrvoje
Electric
Austin
##Ca
##ljo
##kami
##gui
##enb
žiri
zasedanj
večinsk
trenut
sretan
sedi
sch
predpisov
pobijedili
naklad
mater
lag
izkoristil
inspired
coat
bračn
angažira
aged
Tamo
Renat
Mull
Izbor
##FI
##tske
##tical
##etic
##db
##ačn
članku
zatvoru
zaboraviti
vodovod
suo
snimi
simul
rokov
predlaže
pedi
partizan
klasično
izražava
glasno
določila
dev
briga
banaka
attempts
Strat
Manuel
Carter
Bird
Bibli
##volj
##poli
##eral
##burn
špan
terorist
stole
spoznava
savjetova
preh
pokušavaju
podk
ostvarenj
mariborske
manjših
autonom
Pavli
Marti
CC
##OVA
##žel
##yard
##tila
##tavi
##lm
##ekt
##ande
zavar
promaš
pobun
otr
inaugura
hvali
fotografiju
dress
calls
Konj
Barcelone
Ane
260
##Bi
##roč
tribin
tradicionalne
ther
skorajda
ravnatelja
princes
prahu
mreži
lotil
intimn
existing
beseda
UC
Ref
Protiv
Lal
Italijo
Britanije
Austria
##mr
##mans
##ient
##ejših
Šibenik
sudionika
propusti
prilagaja
premo
oč
minimum
dobička
Veli
Organizator
Officer
Lithuania
Cut
136
##tli
##pak
##ensi
školama
tras
tone
sn
sega
praš
poljoprivrede
otkaza
nedavni
napredoval
kvadrat
Via
Trn
MAR
126
znesku
utili
preprič
poslanc
plava
plav
očuvanj
odaz
obsežn
obiteljski
načrta
najv
izbruh
drag
Trust
Rekao
Moz
Kakšn
Cari
##ution
##rh
##oin
Šele
videos
unutarnjih
suparnik
secure
proval
prodali
priredb
potnik
ogl
obseg
nastopili
maksim
hum
džep
djelatnici
contemporary
Skupaj
Hil
Dino
##yon
##mme
##kansk
##kacij
zaje
spread
sites
sequence
sedme
sadn
redovit
radim
podo
pap
ostaviti
omogoči
ministarstvo
komentator
kipar
izgradnju
generaln
favour
bolečin
administrativn
Ske
Sch
PD
Eko
Aleksandra
##ssor
##mljen
##knu
##agan
železnic
uprav
stavil
razv
rasl
procesov
nered
ispriča
francusko
etničn
disko
choice
avtomobili
Stal
Nea
##SKE
##onic
##odišnj
##isk
##isan
zdravili
zadovoljna
temp
splošne
returning
prezentira
pomenil
podobnih
pate
organsk
obnovljen
matematik
marked
košark
igralk
Zem
Trail
Speed
Salt
Peri
Once
Loš
Int
Imel
Banke
Alberta
##ćeno
##hab
##ggi
##cami
zvez
starše
razdalj
pušča
priporočil
premor
potreban
obavije
nenad
naknade
magi
izven
izbrisa
funding
daily
bjel
Yama
Uroš
Quebec
Nepo
Komisija
Inst
Gosti
DEL
Cork
Alg
##wed
škodljiv
zakonodav
vojnih
ukras
udeleženci
stotina
sons
reše
razmatra
raziskovalc
raziskava
psiholog
pome
poduzeć
podno
molim
kriterije
komada
kolegic
jasni
htjela
chosen
brine
borben
YouTube
Porto
Forum
##RAV
##In
##žnja
##vik
##rža
##rim
##life
##jci
##ičke
zg
zatvor
sodnic
slučaja
povjer
onu
izogiba
izg
fought
XVI
Voli
Večernj
Ukupn
Podsjetimo
Novinar
NHL
Lod
Hunter
Hindu
DRUG
##čij
##čevo
##tično
##mos
šibk
vlaganj
sazna
razglasil
pozabi
povečuje
plinov
omogućil
oa
modne
klubsk
informativn
gay
Seattle
Pravn
Poljak
Krist
Brit
##к
##quis
##nove
##išč
##hus
##eed
##dst
vrnila
vodeći
učenik
usklađ
upozorenj
teritorij
svetovnih
pt
povratni
ponudila
polo
političnega
podrijetl
osnovna
odl
narodni
leže
kršenj
izgradnje
gradsko
earth
dolin
competi
Stran
Lum
Horse
Greece
##čuje
##čast
##iće
straight
sprema
sindikaln
sim
remo
referen
rede
presk
policajci
omenjenih
nom
naveo
košarkarj
collect
catch
baca
Whi
Velikoj
Ureda
Napad
##AF
##81
##ense
značilno
zanemar
vsebine
vatren
varovan
trib
strokovnjakov
sigurnosn
pror
pospeše
pomogl
političar
obtained
monitor
krumpir
identified
gest
cev
brazilsk
belonged
astro
Svjetskog
Schu
Reuters
Nest
Bali
Andri
##žb
##vov
##valni
##duct
##dnja
Želimo
športa
vidik
ustvari
tedanj
task
simpati
prihvat
preporuč
prenije
nastupi
kućn
kralja
kart
kampanja
fast
fakultetu
dediščine
besedil
Ug
13th
##GS
##xu
##varja
ustvarjaln
umre
spremenila
samostojni
razo
prekr
pokojninske
pojavio
odstranit
obrana
nazna
nastaja
nasprot
nadzorni
legenda
kate
kampanji
inspekcij
gard
celi
bul
Twin
Silvi
Mun
Jad
Foreign
7th
142
##šića
##čj
##onom
##lke
winners
verjetnost
točn
tovornjak
redom
poži
poziciji
oran
odkriva
največkrat
letters
knjižnic
kmetijstvo
ambulant
Splo
Philippines
Petrol
Najveći
MC
Cen
156
##ZO
##ovij
##olin
##lde
##lava
wheel
vidljivo
veri
sus
starim
spriječiti
odsek
kvart
kamer
households
hitrejš
gledano
genus
entrance
coal
Zlat
Pent
Njezin
Koji
Gospodin
Ferr
##žič
##žaj
##tane
važnosti
trgovsk
surname
pripravljenost
phase
naval
namene
mizo
mesečn
konkurenciji
kartice
izborn
izaći
gate
entr
dugi
dropped
draž
boundar
advance
Srba
Sloveni
Perković
Kosovu
##sam
##osta
##orney
##ization
##ebe
##aha
zniža
zazna
vne
turbo
spoštova
sklepom
sjever
publiku
pomoću
peni
opremi
občinskega
musician
moštva
loči
izrekl
energija
doveo
domnevn
copy
Toma
Schools
Nisu
Harvard
Cooper
151
##Ra
##Mar
##rle
##ističk
##inov
zgrajen
vojakov
vodstvu
univerz
strokovnih
rooms
procedure
predel
pozdravi
peta
pamti
malen
letalo
ekološki
blokira
apartments
UMTS
Susan
Naval
Mladost
Angl
##Do
##zov
##uku
##naz
zatrdil
turističke
supply
sliši
prebav
povodom
ponujajo
pomenilo
opozorili
odga
navijače
naft
ikad
dohodk
današnjeg
cure
anonimn
Srpske
Singapore
Novog
Laur
Apa
##rska
##rog
##ffa
šuma
polica
pli
okuplja
kombi
iskanje
flag
eti
cells
Veseli
Sex
Joz
Janković
Bjel
##MS
##zom
##stica
##lion
številke
čar
Črnom
vožnja
transakcij
srbski
siv
sektoru
povezave
posta
podijeljen
plavi
pevc
palestinsk
osvjež
nasprotuje
najmočnejš
možn
krajin
institucij
esc
definiran
defined
dani
classic
Trg
Tretj
Register
Nadzorn
Jugoslaviji
Ernest
Bub
##pec
##maj
##ljuč
##ghe
##evim
žogo
črne
učitelj
stavk
revija
priznan
percent
pedeset
namenili
madžarsk
leadership
kuhanj
krivd
killing
dirigent
delov
biologi
Izk
Hend
Družb
Carlo
Britanija
##šna
##ncy
Škr
završi
uobičajen
sudjelovao
sra
skija
prsti
prebil
povećati
ozl
obm
notes
litrski
elektronski
consisting
compilation
Raja
McK
Made
Gradskog
Glu
Branka
##itz
##bab
Šentj
zastoj
zamijeni
tiskovni
tebi
selekcij
rijetki
razpolož
razina
prilagod
prel
očekivanja
operator
obs
logisti
konferencije
fr
composition
brzin
UEFA
Nep
Jesenic
Cameron
##rata
##bles
člansk
stvoriti
stopnja
stez
redovni
pridobljen
pooblastil
partial
dođu
dobo
alat
Zvez
Vide
Oluj
Milen
Lamb
Equ
Abdul
##42
##ukl
##hir
##anci
zla
zatr
vrte
uspeha
stopi
relatively
razli
prizadet
pristaj
novimi
muzeju
maz
korenin
kora
grama
exception
creat
batt
Turkish
Roberta
Novos
Neće
Milk
Jasmin
Champion
##čio
##turi
##osn
Šv
utvrđeno
samostojno
obz
namig
kabin
internetsk
ideju
hitno
guverner
dosegl
događanja
certifikat
Olimpije
Judge
Apo
##AG
##žem
##tiva
##klin
##etk
zlati
zgodovinske
voće
vnovič
restrict
razgra
razbr
pripomo
predstavnikov
popisa
policiju
pogajanja
patrol
oslobođen
obli
naka
mladosti
letnic
foundation
bet
Sreć
Prijatelj
Naslednj
Fabi
FR
CM
##štev
##šp
##šl
##etin
##ački
volja
veliča
vec
trains
teras
suspen
spend
romanti
povo
obraća
listov
košarkarsk
kostim
izvanredn
Vincent
Roberto
Franje
Abe
##šku
##škov
##čita
##sc
##ranju
##njav
##kolo
Šuš
znašal
zasl
utrujen
teksta
tehnik
starostn
sredstvi
prijem
občuti
nara
lesen
klupsk
deklaracij
Velj
Serge
Ic
Berk
Bei
##mpt
##mog
zras
wave
upravičeno
suigrač
slučajevima
reviv
preminul
neutemeljen
nerazum
lie
kombinacij
jajc
dobavitelj
bančni
Tac
RB
Norwegian
Najviše
Kala
GM
Foo
Alla
##žev
##nač
##izacija
##injen
zakone
vključeva
uta
uporabiti
tolik
sektora
rum
pup
primerja
poznaval
poena
otišli
organizacijsk
opredelit
oblikovan
njegovog
hotelsk
dokonča
Siste
Petro
Moč
Critic
Cast
##ATI
##pani
##cca
##bling
zastavi
vegeta
posjetil
podoben
nijans
neprem
moguć
mamil
dijelova
Stein
Pedro
HEP
Frederick
Costa
Berlinu
##FC
##voz
##vka
##psk
##hai
živalsk
zrn
zbran
zatražil
zamjer
vključit
svjesn
srb
spoji
prehit
poslovnim
obrn
nedeljsk
nasled
fictional
določit
dokumentar
celin
Puno
Mati
Jadranka
Hut
Balkan
134
##EJ
##EB
##wl
##skal
##sie
##plja
##anc
šteti
zamenja
zaigra
zadovoljava
vladni
vest
ustrez
upit
spoj
smanj
priznaje
predi
optimiz
nikoga
ključno
izdrža
greater
dogajanja
documentary
detect
besedami
bere
Zajedni
Wol
Vrt
UV
Tere
Several
Niti
Mestn
Mail
Edit
EB
Božič
Ave
Alj
17th
##zova
##rell
##mou
##mač
##ljeva
##lity
čevlj
većim
tjedno
tho
tee
promijenil
ponosni
podzemn
obrti
obale
navadi
memo
krompir
kavu
interpret
cloth
Robinson
Produce
Hag
Emma
Bald
##ubl
##pravno
##nh
##kat
##craft
upri
something
sneg
razk
raspol
propu
prena
osnivač
opore
navodil
lije
izvori
izvi
frequently
dočekal
dojm
dajat
Zanimivo
Velik
Općin
Lap
Brother
Bjelovar
Berlusconi
Anal
##vit
##name
##iu
##adu
žur
Ć
zabilježi
vreč
steel
sjeverno
revi
repair
razmisl
potiče
odmora
kazenskega
iščejo
inštitut
expansion
dovoli
določena
dogovorjen
dogo
die
cele
agre
Rož
Rol
Istre
##vite
##trin
##tche
##down
zagrebačke
uno
uloge
stola
sing
scen
rojstni
rescue
pristojne
pripadnik
porabi
opravda
odpre
niže
najkasn
ljek
izvorn
istinsk
isporu
intelektualn
infekcij
hitre
historian
Tih
Queensland
Obitelj
Kva
1904
##žiti
##ubi
##ror
##dnj
zapisan
uvedl
utvrdil
regionalno
reagira
počinjen
olimpij
olajša
obse
nesreća
nepopoln
kanadsk
jetr
izvira
hitrosti
gon
financijske
exhibit
dolask
direktno
atleti
Riv
Lane
Barceloni
Baker
BB
1903
##UM
##sav
##kva
##ijal
##cro
ženu
zime
voziti
tehnične
starost
sooča
sodno
slišal
sklenili
selection
režiserj
reporter
reality
realis
poem
pobijedila
naruči
modri
milj
manu
ljepot
jok
islands
heard
energiju
bolnišnico
Ladi
Katarina
Campa
Američki
##šeno
##otno
##kuje
##dsk
tumor
tramvaj
tima
stori
stanice
skijaš
siječnju
sev
prakti
jubilej
inv
ikada
fuel
failure
correct
coll
Pogle
Ovog
Olympia
Medved
MV
##šc
##ín
##yde
##sur
##ox
##hnil
zamejs
ulaznice
sekunda
prepoznatljiv
povečala
posledično
osoblj
elektrarn
dvoma
dodir
Soft
Sah
Jesus
Esta
##urj
##tala
##pij
##osu
##igen
##hle
zaključila
vrnili
unija
straha
squad
sproščen
pust
publication
prostem
priso
pripad
prijedloga
poskusi
plju
ot
nesretn
narok
metr
lastnika
komunikacijsk
izkušen
današnj
Yar
Lyn
Guin
Cijena
Bulgaria
##Ja
##ijen
##cell
varno
thirt
say
rivers
reka
razveljavi
rasprava
rasi
počasti
potrebovali
posveti
očet
ore
ocenjuje
najboljšo
mirovine
logično
izdanja
igrama
Velenj
Rij
Primjerice
Partizan
Organi
Oak
Cann
##škom
##torj
##sl
##glas
župnij
usvoji
tjera
svibnju
sportaš
smrtni
reprezentanca
pročitajte
postavio
kroj
kolektivni
katolišk
grow
dječak
Očitno
Mostara
Jakob
Ip
Horn
##Gr
##zir
##toni
##nant
##gul
##enjem
##efi
##ažni
tekmovanj
stresa
stanovanjski
sredin
srbske
regionalne
rahlo
pripremljen
pref
odlok
klopi
fotografiji
doživljaj
diplomatsk
WR
Norway
Kenn
Format
Cau
Bres
Birmingham
Bia
##uš
##ulati
##edin
uresničil
sirov
rgb
recesij
pruži
proglasi
privlači
pitao
onome
napit
kupil
košarkaš
jeftinij
izginil
investitorj
duševn
bishop
Zagrebačke
Splitsk
Postoji
Neke
Nau
Mosta
Kopru
Julie
Joan
Jin
Ispr
##ENI
##tial
##psi
##ovno
##olji
##juju
##ejša
##dj
##cci
zdravstvenega
ušli
stolo
slednji
postale
pojava
poceni
ploče
občino
neugodn
nesreći
komunikacija
izi
izbjeglica
guitarist
govoru
desert
ceme
Priča
Ništa
Ade
##tica
##scop
##pher
##hik
zrel
vani
teka
strijelac
složen
sekcij
rezultatov
repli
razočaran
prostorima
posljed
podre
Počet
Petri
Najbolji
Eddie
Boj
137
##KR
##too
##ssu
##menti
##jnik
##ičen
##itič
##ered
časih
uvrstil
sunčan
shvatiti
rajčic
premij
predmetn
pozitivni
pain
obavez
njegu
mjesečn
izbrali
institution
harmoni
epidemi
Združen
Potom
Hub
Emm
Elect
Doš
Deset
##Not
##žet
##wel
##idat
##fest
##erte
##asno
znanstveni
upravičenc
tomu
thre
sitni
root
pušta
prego
portala
pogotka
najb
medijske
effort
dodeli
ameriška
Wen
Vino
McC
Fli
Broadway
##žnik
##ljani
##jivi
##egr
##baj
živa
zatražio
zan
vsemu
učinke
trećem
tekmovanju
stabilnost
smijeh
preuzel
podpor
podat
obravnaval
nekome
muzik
mađarsk
lastnih
konkretni
komu
izobraževaln
delali
backing
animal
Pozi
Njegovo
Dona
##yal
##sus
Čilić
zaupal
središnje
soglasje
showed
rujnu
razbur
rapid
prebo
posp
nika
mojim
minule
milo
mik
izbr
interf
dialog
cvjet
authorities
Moli
Indo
Eur
Ep
Cincinnati
Beč
##nčič
##ingham
##dušn
##ačk
članove
zasn
temeljnih
takšni
razstava
ratne
projektn
potrag
potekajo
nul
malog
kupova
kaza
jemlje
gredo
agr
Vedran
Svete
Sold
SFRJ
Nicholas
Eco
Dubrovnik
Dost
1870
##lyn
##alk
zagotovila
učinkovitost
umro
uma
sample
rezultatom
razvojne
pridobivanj
prepun
povpraš
osvojen
osebnost
opposition
odvisna
naknadno
lažni
kategorij
homoseksual
heroin
grafi
flower
europskog
doje
branje
Wonder
Wars
Sola
Scho
Njihova
Moskvi
Minor
Louisiana
Chairman
##čnem
##tičk
##ošk
##graphy
##andr
tvornic
standing
sorodnik
počinitelj
powers
poginuli
podjetjem
operater
okru
odstavkom
neprijetn
materialno
mas
jača
izdeloval
ispr
grup
employ
dogovoriti
dežel
corporat
Rusijo
Parker
Ll
Evropa
##čevanj
##tiran
##otni
##olsk
##kic
##hez
##gorsk
##erjev
##bea
človeške
zvan
zakonskih
veleposlani
užit
služil
prijateljev
presta
oder
načrte
najstarejš
ljuti
liječničk
krizo
krila
kopn
dohodnin
Shak
Poh
Nab
Korea
Devi
Cedevit
##rla
##ridge
##rc
##ovnik
##olu
##jern
##ium
zimske
walls
vsebujejo
tube
svobode
pretekl
podig
pisn
omeni
najvišj
mel
kasni
investigation
golova
federaln
dosl
bić
ava
Saš
Otkri
Mexican
Information
Gramm
Cest
Bod
##HO
##uča
##try
##tell
##onov
##ibi
višine
urn
tribut
treningu
tamošnj
sagra
rom
rask
preostalih
parlamentarne
osrednje
nest
natjecanju
namještaj
miss
krediti
attacks
Vor
Obam
Konec
Geno
##toc
##pljiv
##nani
##istic
##hun
##eur
Šti
usk
ukloni
sou
samih
recommend
pustil
prvostopenjsk
presenečenje
pregr
povezanih
pojedin
pobjedi
osi
oporbe
ogroža
najverjetneje
nadaljevala
masaž
kriminaln
končnic
iztr
iransk
imenovane
gradnju
davanj
candidate
bands
Sisk
Masa
Marković
Izol
Fal
##ör
##yst
##gir
zaskrbljen
zahvalil
zadržava
včerajšnji
vil
supp
stekla
spekt
spe
romana
potvrđuje
potroš
pomlad
polovice
podizanj
očima
opred
nast
ljubo
heavily
gostinsk
eye
debel
akt
Rada
Prijav
Mort
Dennis
Craig
144
##žana
##tation
##sije
##rite
##iru
##awa
vrniti
trdno
tool
sistemi
shortly
psihičk
preč
pojavljuj
nervoz
nastav
mad
laži
hair
disku
convers
chair
alt
Spre
Spirit
Senator
Povjerenstv
MM
Herman
Bale
Abd
##FA
##03
##šem
##vnim
##ljati
##ily
Ćo
zaredom
zaigral
svete
rje
retirement
proslav
produlj
prevzela
posveča
pogost
poduzetni
pec
income
impli
alarm
Vra
Vancouver
Timo
Nen
Loc
Krško
Dodal
Devil
Comple
Brav
##nev
##ished
Šal
zanemari
tis
strategij
prodajni
potpisan
postignut
poba
plac
oznaka
naslije
impact
expert
desetin
dep
alli
Stock
Priš
Kant
Hud
Hir
HE
Cibon
##hire
##enda
##cam
športnih
Šl
članom
činjenic
zatrjuje
ustv
težki
strankam
pretp
pregledu
povečal
polčasu
originaln
orchestra
nikakršn
intel
grožnj
dobav
Soči
Sala
Peace
Lt
Kob
KL
Dubrovniku
Dj
##čini
##snil
##oljn
zbe
zabavlja
transportation
steam
prisili
prihajal
pitanjima
oka
obsta
najbolju
nagrajen
mejni
manjša
koordinacij
konkret
izvuk
guš
dvostruko
dvign
droga
core
articles
Proti
Lovri
Frie
Dodao
Akademij
##štanj
##čano
##ork
##ničk
##meti
##bov
##ash
zahtevali
vrg
vatrogasn
uredi
televizijske
strankama
starega
smjes
skupinam
rich
rev
reko
prihvatljiv
predstavljati
pravilu
pravili
pouč
odprte
izkazalo
frizur
dodatna
alone
Severin
Scen
Pozna
Note
Add
##ščini
##redn
##lst
##kha
##eku
čudež
zahtevku
vodje
ui
sodelujejo
občasno
needs
mleko
krenula
izmen
izgublja
investira
imele
hero
dočeka
doj
commander
celebr
caught
asistencij
Vladu
Titan
Rasp
Pazi
Koment
KP
Cand
##GE
##72
##52
##ulja
##ijim
zanimaj
uresničit
skrbno
sale
reflek
raspisa
provincial
probudi
prihran
prejšnjih
pijan
phone
otroški
orientation
opse
odraz
odjev
meant
krvav
grave
farmer
Stare
Kočevj
Guardian
Bengal
Adventure
##čite
##rskih
##orma
##lige
##fit
##cra
##cies
##anom
zbiral
zagon
vrijedan
vojsko
utrke
twin
tradicijo
tradicij
spremna
shr
refers
provode
prestal
poslijepodne
palet
navrata
naslovnic
mosta
modelo
kutij
ek
deci
analysis
ZP
Eb
Consul
Cav
##zzo
##ljajo
##eal
zajema
učn
uvrsti
trenutke
statement
sprejemljiv
sole
prijetno
predsjedniku
predra
osnove
namenjeni
najza
nadzorom
ministrom
kompleks
getting
dolžna
disciplina
Upon
Stor
Richmond
Log
Lega
Grub
149
##juće
##inam
##gus
##cop
zaposlil
vise
upozorio
sudski
snov
snažni
residential
regions
rear
prize
predsjednic
potekalo
notranjo
hčer
dž
doslovno
Well
Ukrainian
Držav
Beaut
##él
##uck
##mez
##gniti
##eži
žv
članicam
čekal
Čakov
zdravja
zaposlitev
wel
uspijeva
upitn
thin
subvencij
shar
rabi
prijavil
podaja
najbliž
komunističk
iron
inf
igralka
glazbenik
copies
Uporab
Trade
Str
Political
Pisa
Pint
Kali
Avstralij
##ELJ
##vega
##ulat
##uan
##godišnje
##esl
zavrača
zapad
zabavi
vidjela
unre
scientific
scholars
proizvodn
prodan
prizadevanj
prehran
prebral
naprava
najvišje
lokacije
likvidacij
ispo
inšt
inšpektor
gužv
govoric
glass
dovoljn
dječji
controlled
Zoo
Stoj
Sali
Kje
ETNIČN
Cris
Blood
Alon
##yk
##upn
##sija
##ođa
##lifi
##ilje
##esk
##cke
##arji
##ante
Šuker
vodeć
sodijo
proceed
poljoprivredn
plants
okvar
odpravlja
komp
kirurg
izvješće
iznenadi
hem
financij
drven
diag
Von
Village
Say
Professional
Nač
Map
Fine
Dod
##ł
##znic
##edel
##bes
Šmar
zaustavil
tradicije
rušenj
represent
reagiral
poudarila
poln
pevk
orijent
odd
nik
mafij
kupnju
korišten
igrišču
goli
blaz
Ship
Security
POR
Language
Krem
Drum
Capital
1895
##02
##žim
##uer
##rjem
##pos
##ith
##este
čedalje
zgodil
umetn
sprejemanj
predstavnike
predmete
poročajo
pist
ostvario
odredi
njime
nekem
napako
modele
ministrs
mayor
jekl
ispra
govorim
enak
dejstv
Samobor
Oku
Kne
FO
280
##zvo
##nij
##ians
zajednici
zab
vanjsko
ustavne
ustavit
uništen
touri
testira
svetnik
rusko
popun
odlo
kriteriji
inženjer
igralni
dvoboja
drugod
dirki
consider
centro
ZL
Pravo
Perf
Pav
Orchestra
Jednostavno
Dejstvo
Battalion
Baltimore
##Ar
##tap
##onar
##izam
zavodu
voditelja
učen
sm
reveal
ratno
odprto
odprav
množičn
laj
kritika
dubin
dopoldne
donose
dobile
Vodo
Spor
Sigurno
Pivovarn
Ogr
Napoli
Moje
Jesu
Ivank
Europski
##tvijo
##resi
##dije
##dija
začin
strojev
sovjetsk
script
rodno
recit
reakcij
privat
prelom
postojeći
popraviti
ponudba
osvajanj
osječk
odločbi
naslednik
modelu
medalje
juri
izradu
izjem
gospo
gather
feat
dopustiti
contain
bošnjačk
boksa
Swan
Stanov
Scar
Opr
Kati
Cob
Celtic
Ans
##čel
##vana
##ruct
##py
##eke
zvezo
zemljišta
združit
zakonodaja
ubo
triju
standards
spoznal
sodelavce
sklicuje
raspolaganju
pravnomočn
pratnj
pomažu
obravnavi
nem
naredn
mjesecima
lipnju
lastninsk
iskr
dolge
beba
Mladić
Challenge
Boh
Bare
147
##Data
##zia
##reno
##night
##nera
##lnega
##knil
##jkov
##jez
zanimivi
ustvarjalc
terorističn
službene
plesni
pjesm
pasti
ogledal
nepoz
navik
nastupil
hits
bana
application
akter
Sciences
Natali
Jelen
Imm
Harr
Break
Beth
##NJA
##zima
##pno
##ogr
##jelj
##atur
uputio
torbic
teroriz
slobodni
povezal
populacij
podjetnišk
ovome
nivo
nemških
najpoznatiji
monar
laže
kvalifikacijsk
koti
izjavu
isključen
finals
drop
dlan
discipline
delam
converted
bari
akti
Zbor
Tea
SMS
RT
Qi
Photo
Kme
José
Ina
Commerc
650
##Fi
##34
##žnj
##kis
##jujejo
##itn
##fle
##eds
čekati
zaštitni
zasto
zaposlitve
vzpon
vođenj
velikokrat
spektakl
snemanj
prisutn
poslabša
podaljš
nasprotne
meter
makedonsk
lim
komisiji
katastrof
izgube
expected
ekonomije
earn
Paulin
Mig
Mau
Makar
Lill
Fif
Euros
Divi
##tiv
##ramo
##qu
##friend
##erk
##biti
veljati
uporabljati
toča
teku
tehničk
sudov
studije
residence
pričakoval
prijateljica
poročil
otišla
odkar
nave
nastaj
mišljenju
koncern
izhodišč
izdelav
dviga
Writ
Tos
Spar
Puc
Koc
Keith
Hera
Buffalo
Bosna
BOL
##zza
##vili
##ušč
##ues
##prise
##osp
##ngo
##nah
##lot
##gani
##akov
šolah
voter
volilni
vokal
trbuh
smeć
sklon
seed
reševa
refused
reaching
razmišljam
procedur
occurred
naključj
ljubavni
lijekova
kršćansk
kapel
engleski
događaju
den
bilježi
argu
Works
Toki
Tab
Portorož
PB
Ivi
Gospod
Franklin
Food
Drag
Agency
AG
##ćuje
##uar
##raln
##ots
##loške
##jeta
##igu
##gard
čuli
čista
ups
srčn
sos
sodnika
radove
prizorišč
pristojno
poručuje
pogo
plastičn
plane
orbit
oble
neup
jedi
detalji
cvijeć
branitelj
Virgin
Salva
Ring
Ljub
Francusk
Cricket
##šća
##umu
##nsa
##lc
##jeđ
##fy
##bne
##biln
##bali
zagrebačkoj
vezana
usn
težje
susre
skupštine
pub
oskrbo
obrestn
obrazovn
nevjerojatno
kompleksn
gotovin
bitn
Zagor
Reserve
Rams
Princess
Parlamenta
Glavno
Bernardi
##ŠI
##part
##onn
##nča
##izem
##blj
##ašen
##anji
širit
učinkoviti
umanj
protekl
proračunski
pripravljal
polne
otvori
nea
minimalno
mehk
mano
korisn
ing
gust
gradovima
fonda
Sec
Jaka
Days
850
##uče
##ršn
##rry
##rajo
##ident
##haus
##cov
##ažn
##agon
značenj
zgoraj
vjeru
urednic
tenišk
sosednji
rekordn
radne
priključi
petnaest
overl
odraža
naviga
jutra
javil
jamči
inhabitants
idealno
hrvašk
dava
bolnišnice
bojev
aren
Zra
Thai
Međimur
Butt
Albanij
Affairs
##vnic
##rar
##orij
vrhun
vodič
variant
ustroj
preostali
policistov
obnovi
luknj
jezikovn
izredne
hydro
dopušča
discuss
ameriško
Vanj
Sobot
Rup
Posljednji
Golf
Dayton
Boe
Barbar
##LN
##yma
##tnj
##onosn
##ljuje
##iln
##gge
##alje
zmanjšanje
vezan
solidn
severe
problemov
približi
potrebujemo
popra
plovil
parliament
neprimern
nemška
načini
izvedenc
djelatnika
consecutive
brd
bala
Nadal
Klas
Dija
Current
138
##LJEN
##ALI
##nijih
##ecu
##cco
Šarić
zraven
vplivajo
velikosti
tužiteljstv
sporne
samou
proizve
preživ
petin
obr
nimamo
mud
legitimn
klavir
idemo
headquarters
founding
dodatak
Use
Ostal
Kard
Gat
Cons
Blake
141
##oten
##koz
Šimun
zaprosil
vozači
upravnih
tekoče
stališč
spavanj
samostaln
salat
prošla
protesti
promjenu
prin
premi
pogodbeni
održao
neprestano
napredak
morski
januar
iznenađenje
izab
eta
dužnosnici
Tottenham
Pokuša
Pay
HB
Choi
##piti
##nstven
##nio
Šan
vidno
tunel
tablic
rezerva
reme
razpravljal
poslodavc
moju
izbjeg
intervjuu
install
imperi
gur
Snow
Sirij
Ret
Prote
Mogu
Minu
Kurt
Hom
Evi
##Ta
##BN
##uru
##eca
ugovori
stolp
relative
peš
painter
ovadb
nježn
mut
mort
kršćan
določi
Staro
Slovensko
Dee
Ameriki
##ZE
##AA
##ŠČ
##uce
##odn
##evala
čestitk
versk
symp
specifi
rut
referendumu
pav
obilježavanj
lut
kriminalisti
kriminala
gostuj
davn
concentrat
bou
Youth
Rima
Poto
Hem
Gard
Dono
Castel
Beh
550
##zati
##ype
##ož
##cally
zamudnimi
upoštevan
tribe
selling
razmišljanje
preganja
panog
oborožen
neposredne
kiš
kim
kakšnih
elite
dub
cul
cesar
WB
Sup
Obrtn
Glasgow
Cvet
210
##vak
##lled
##jur
##doni
##base
zamisliti
veste
uvesti
uveljavljen
upokojen
tovarn
stvaraju
snažn
skal
rojak
reports
razmeroma
posjetitelji
osigura
osebnega
napredova
interaktivni
entry
congre
Zasa
Wisconsin
Thur
Roj
PRAV
NOV
Fea
BT
Avstrije
##VANJ
##opat
##oad
##nza
životinje
člank
vrhunske
vlastiti
vjere
vidijo
straž
prekinu
predsednica
pomorsk
parad
območn
napr
metri
memory
krugov
koalicij
kW
groblj
emisiji
dou
domovini
clos
Years
Pril
Korean
Chor
Chand
Cars
##71
##én
##vamo
##nimo
##lović
##ligaš
##igan
##gur
zati
vessel
socijali
shared
sacr
registered
receiving
prijete
posamezniki
porasl
participate
nastanka
naruš
nape
nadzira
mount
jutarnj
izvlač
francoska
else
educ
diza
diplomacij
cave
beguncev
Sma
Raymond
Nemci
Litv
Koprivnic
Crkv
1200
##ID
##27
##čuna
##čec
##wide
##tery
##mili
##ikom
##eria
##arodn
športno
šolstvo
unable
ukvarjajo
ubio
susjedi
pripremiti
položi
plaval
pieces
optužen
ohladi
negativ
muslimansk
konvencij
koalicijski
ignorira
frizer
encourage
dlak
desetletj
ZUS
Valenci
Tomislava
Tesl
SDA
Richards
Ravn
Lieutenant
Diana
Ches
##zbo
##snu
##osla
##nuli
##lači
##kata
##elje
župn
žit
zaž
vmesn
trajalo
svjedoče
sodelav
skupščin
skup
pričakovali
presudu
pevski
općenito
održavanja
močan
kamni
hiper
fift
edi
debit
das
Zeni
Zelen
Pam
Ottoman
Nedavno
Father
Cyathea
Communications
Broadcasting
10th
##NK
##uts
##lazi
##fn
zbirke
zali
zakonodaj
zabav
vključen
umetniški
tres
svjedok
opskrb
opere
lom
dopušta
cit
Veter
Neko
Kamen
Eugen
Comb
Casa
1896
##ženj
##zani
##wil
##onj
##nea
##kate
##atni
časopisa
zabeležil
učenja
utegne
uhićenj
ugodne
suš
spolne
skočil
reci
prijaviti
pojedinih
parka
pano
obrazložitvi
klav
hipote
elektroničk
divers
dekleta
deaths
darova
connect
aps
Sku
Ree
Nepr
Natural
Mitchell
Liber
Heritage
Dubrav
##в
##mija
##key
##jaj
##dli
##dić
##dašnj
žut
želod
vašo
teritorija
sadašnji
problematičn
politics
pojavil
podm
osudi
odboru
izložba
isproba
grozi
elect
dee
References
Nog
Niki
Libert
HI
Eks
139
##stveni
##roma
##ergi
zaupanje
veseljem
učitelje
uničen
tamkajšnji
svetniki
represents
potk
odte
odstotki
nec
kupio
izpelja
izborno
ispada
inje
extension
emitira
doda
deleža
commissioned
asse
Sveta
Sall
SAM
Rodi
Robo
Rhode
Postojn
Heb
Ges
Gallery
DV
Corp
##riš
##opis
##naut
##koč
##kaz
##kanje
##anstv
ušes
unl
surađiva
smuk
sira
rješavanje
prikupi
povezavi
planeta
obda
novčani
narrat
loč
los
logik
informati
hranj
deloma
brezplačn
Važno
Tomas
Tau
Notes
Hurling
Hok
Gha
Farmer
##štr
##đenja
##voje
##tric
##kana
##dr
štel
človeški
čitanj
zbirk
vkl
udelež
trofej
spect
protagonist
pozo
oglasil
nadzoru
kratkom
komunicira
kolektiv
institucijama
forested
enroll
appeal
aktivnostima
Pick
Mot
Mete
Fig
##Da
##yd
##rri
##itan
##ible
##ched
##bos
značajni
zapošljava
vojak
visited
varnostne
uzel
trying
slobodn
samomor
preizkuš
petimi
odprta
kaz
izstopa
izpodbija
fat
ekstremn
dohod
brief
blis
acts
MB
Assa
##Ge
##nš
##jeka
##elan
župani
zrakoplova
uništava
tožen
teachers
skills
skida
rodn
putovanje
posebnu
obrazovan
njihovom
nacrt
mlađe
manekenk
komponent
dolgoročn
djevojčica
demokratsk
crossing
criminal
borz
alk
Stud
Prosi
Ord
Nisem
Nee
Iowa
##mari
##itel
##ified
##idn
##dnic
##ajte
zgodila
zahodni
vođe
vase
underg
uboj
tvrtku
trd
toward
starts
speciali
sobotn
registra
rating
prosv
presež
potrebama
poo
pipe
offices
mobilno
jezera
dvomi
dodatk
compre
Statisti
Ramo
Notr
NBC
Hei
Denver
Beb
##zz
##ige
##gati
uživanje
uzeo
tekočin
tale
razpore
prolaz
orkest
oglasi
objasniti
novinarji
nobena
migracij
krajnje
exclusive
Znanstveni
XX
Vuč
Sret
Prist
Posebn
Orešković
Miran
Hasan
Antonij
##orc
##eci
##djel
zaposlenim
zamrzn
til
telekomunikacij
suprugom
remainder
raznovrs
potpore
pones
odgovorna
napetosti
nadzornega
motocikl
lose
komi
izrecno
izdelavo
dekan
Seven
Rica
Pus
KB
Dž
Dud
##uring
##thon
##rstva
##ogi
##manov
##kve
##gnut
##anz
zgra
veter
verjel
venue
uvjerenj
upozoravaju
uloži
udario
svjetskim
staž
rou
obnovit
nastao
litre
klet
hitri
compared
brown
bivša
Spu
Small
Samm
Preb
Naza
Arabij
##28
##erj
želju
šetnj
znašel
zavje
zastupa
vojs
višino
tveganje
trop
tedn
stvarima
skandal
sjemen
razdr
races
prosvjedni
pregledn
položaje
pojave
pods
otkrili
omo
odgod
naravna
milijone
gam
beach
Vik
Tig
Sund
SPO
Portland
Ort
Dest
##RD
##és
##bora
##aliz
zoo
zajet
serijsk
selja
riba
reven
razlikova
prekida
povab
poljsk
poletni
piš
parišk
orient
nogometnog
mask
kroničn
kopa
jug
igrališt
idej
funkcijo
formaln
disciplini
delodajalce
Večernjakov
Gir
Dari
Citi
Borde
##61
##lana
##iso
##iljan
##ape
##ache
vznemir
stvarni
pull
pozivaju
pokrenuti
pogajal
paprik
luke
legaliz
konkurenci
klasi
duhu
Veg
ND
Grg
Francuske
Est
Constitution
Aleksandar
##STE
##pl
##leg
človeku
waters
varie
translated
tjedni
svobo
seje
razplet
raziskovaln
prihvaća
prigovor
poznava
pogreb
ovakav
obema
korp
kadet
divi
demokrat
balkansk
Manu
Mae
Budimpešt
12th
##JEN
##JAV
##uel
##jna
##gl
##fall
##equ
##bad
##anč
zastav
zamo
zaključ
wish
vruć
vprašanji
vozilom
visokog
utvrđen
uskladit
tuj
theor
takvi
suz
repri
provo
primere
približal
pretvara
poročali
popularno
plaš
obve
kršil
konzulta
kabinet
hladne
gozdn
ekstra
abr
Picture
Period
NEK
Missouri
##wall
##pred
##ograf
##nemo
##mpo
##ljsk
##dite
##dani
švicarsk
šalje
zgreš
vac
turizem
tempo
roof
razb
poslanec
ostatk
oppo
odgovorne
montaž
ll
kis
hčerk
dobrom
clan
approved
Toliko
Tito
Planin
Ož
Onda
Kora
Hyd
Edu
Dop
##lž
##ktn
šov
trajati
svojstv
stvarn
slightly
površini
postavljena
occasion
maximum
ločit
kći
kanalizacij
ispita
hladni
gr
ekonomist
detalje
broda
belgijsk
Sob
Puš
Postoje
Hara
Gang
Brigade
187
##SB
##avni
zamr
stupanj
shvatio
rutin
ros
recruit
pokl
ojača
krm
insta
figures
djetinjstv
akr
Ljudsk
FD
Ern
Cityj
1860
##oul
##nama
##liza
##emen
##ced
Špi
znanstvene
zapusti
zapisano
zaključiti
vadi
temeljne
svakodnev
q
progon
otpu
napovedan
mizi
komite
imenovanje
gradov
državljanstvo
distribut
dens
cou
aero
Tužiteljstv
Tee
Sug
Poll
Fellow
##35
##33
##ćim
##vers
##utni
##uten
##stom
##manj
##ežljiv
##cli
##bljen
zapali
zanimive
vlastitu
vježbanj
vesla
vaje
ušla
unutra
težo
stupi
pacient
optužbe
oblikuje
neutral
nametnu
multimedijski
misel
lanc
krp
investicijsk
inten
fen
evropska
dosedanje
brezplačno
authority
arrested
Vern
Ligi
Kriv
Izid
Investi
Cardinal
Bour
Adri
##toj
##rug
##oše
##ovačk
##okov
##lod
##him
##glj
##fici
##ando
čelnici
spletne
shut
propada
prekl
plačuje
okrugl
obraza
letošnj
gasilci
canton
Shah
Manda
Godin
Finan
Comi
Code
Barack
##reg
##rab
##lka
##jano
##dek
##cut
talijansk
stot
različica
pušten
promjen
prispevek
prihodu
potreben
porabil
ostvaruj
okupi
naslednj
kratke
kolegi
kamn
jutros
izmjen
hul
fakultete
ele
dosadašnje
dizel
bik
bag
Stož
Srednj
Lah
zastara
victim
tretira
transparent
sodelavci
slavili
ribi
producing
poveljnik
pobude
opasno
odvzem
odveč
obogati
obavljanj
lup
karat
filmovi
divlj
deliver
Združenj
Ustavni
Qu
Nemšk
Ae
##rstvo
##erni
zaščite
ulaznica
ugrad
tematsk
sljedećih
sindrom
projektima
površ
ograj
nota
najmlajš
moškega
lib
kuhan
izmišlj
izlazak
distribucij
classical
barb
Zanima
Hrvate
Abo
##KT
##šav
##pcij
##ovnic
##korejsk
##bac
vra
veselil
turniru
terminus
streh
stiska
reke
profesorj
prihodi
prethodn
premijerk
pože
potvrdila
poljoprivred
pokr
obravnavani
najstarij
misa
kariero
inco
hoj
fear
dirke
definicij
courses
arti
Sib
Romi
Policijsk
Pek
Mayor
Ligu
Gad
Fant
Election
Bogo
##45
##xt
##vrš
##vačk
##užni
##rf
##leni
##fikacij
##duk
##arstv
Špe
trojk
trem
sep
senzaci
razdoblja
proteklo
prigodn
presti
potencijaln
podneb
necessary
nastupiti
najk
masa
lift
kren
junij
jabuk
intenzi
impos
herself
frac
dest
cru
Word
TH
Shaw
Politič
Organizacij
Milanu
Maje
Flo
Eth
Esse
Dug
Conne
##čanstv
##vce
##uze
##unsk
##pass
##lg
##dnu
Đur
startu
sportske
sladoled
quite
potegnil
odab
lokaciji
jasne
izum
izobrazb
duty
bolniki
Zakonu
Support
Sne
Preds
Pokl
Mandžukić
Kroz
Gros
Bratuš
Alb
11th
##ČNI
##vij
##redit
##nuel
##lko
##ail
živeti
Člani
zapu
zamud
ustra
uspjeti
umiri
trojic
successfully
sodelovala
prere
pozvali
položil
plast
osumnjičeni
ostaju
osjećaju
odprla
odli
objekte
novinarstv
narodnost
kvalifikacijah
kmetijskih
elementar
constitu
bund
Sloven
Pulj
Najboljš
Jernej
Franz
Dig
##VN
##čava
##rcij
##quen
##oph
##eša
završnic
vstopnic
vidite
uti
temeljit
tata
suradnici
sezonsk
sastoji
proslavil
prekinil
pljuč
plaćanja
ocene
materin
manufacturer
komedij
kolesarsk
kmetov
klik
inozemn
funkciju
dvadesetak
daljin
creating
consisted
briefly
bij
anth
WC
Meš
Marr
Kirk
Jesen
Factor
Dimitri
Cos
4000
1898
##škog
##đene
##tona
##tika
##thing
##quet
##opla
##irj
##erta
##asc
##arske
želiš
zaprti
zaboravlj
uru
osvobodi
nasmeh
najavljuje
mam
literarn
klima
dionice
dece
bolni
beg
Tsu
Transf
Sot
Mura
Lik
Koro
Ekonomsk
Dinamu
Chat
##ćni
##nali
##ijsko
##ebra
##ask
##alio
znajo
zajel
uveden
unu
umrli
translation
shore
revn
radna
premika
potencijalni
oslobađa
odobrava
obramb
moo
kvalitetnij
hen
garancij
ft
establishment
darov
containing
anima
Turističk
Rez
Kolar
Ivanu
Dario
Clay
Ano
AK
##51
##šanje
##vca
##tai
##ovoj
##nl
##njan
##naj
##ljivim
##lacij
##anska
##ams
Županijskog
Čel
uspešen
survey
sledila
prest
povremeno
podjetjih
pacijenti
omogočajo
okupljanj
odobren
nadalje
mešan
izvrš
izvrsno
iskorišt
hodnik
fleet
exhibition
družabn
diet
chapter
Urš
Maca
Jovanović
Bele
##tano
##lski
##jeren
##egal
##bodi
Ška
vpleten
vot
usodn
ukupne
tvrtkama
sveučilišta
sodniki
smjel
singing
shoot
rož
prost
produkt
prik
počasn
posne
podobna
plinsk
određeni
molitve
grešk
azijsk
attacked
ZPIZ
Uo
Meta
Katalon
Claude
143
##IV
##šnic
##rada
##lika
##lant
##jn
##jc
##glav
##dnevn
človeko
Čud
značajn
zdravilo
vratila
uredil
trpe
threaten
sp
seems
require
reasons
povijesn
očevid
okle
odpravo
obilaz
kisik
kampanju
izvajanja
izlo
invalidsk
honour
glavobol
gets
dobiček
attracti
Woods
Mitja
Kučan
Kranju
Infantry
Hamburg
Beyon
148
##л
##rce
##pris
##ordi
##naž
##dlo
##ađ
uvedbo
uspostavi
stranačk
srednj
sporo
rezan
prisotn
približ
poznamo
povrća
popodne
podrazumijeva
organizirani
naoružan
mirov
letala
kaos
asi
Zalo
Uef
Siv
Sena
Nim
Ivanov
Catherine
Archi
##IA
##uil
##tani
##stim
##rnic
##izv
##erov
##ello
širom
zaključili
umi
tursk
testi
realize
prosjeku
primje
pozornic
potaknu
poplač
pomoćnik
odpravili
mnoštvo
looking
izvedba
instalacij
igara
estimated
dostupni
braka
borzn
Temelj
Spod
Ode
Jos
IG
ED
Bok
##vizi
##stično
##pul
##oles
##ntno
##chin
študentsk
zakonodajo
vzhodu
uzd
uredili
toženk
svetuje
stranku
safe
romsk
roba
repro
razložil
prot
produže
praznovanj
poslušal
plano
odlik
obuhva
lahk
kosa
jedinice
intervencij
ikon
gledanj
doing
boravka
Twitter
Sevill
Rezultat
Lower
Environment
Conc
Andro
##sima
##ovanju
##nning
##lind
##letno
##jent
##fication
##cket
Čern
uspr
težavah
sjednica
radij
punom
pohvalil
plat
objektivn
nestan
naprav
naletel
ministru
menedžer
meets
masovn
letov
globok
gladi
forma
apart
Tomić
Stanley
Sebastian
Malaysia
GSM
Fos
Culture
Contr
270
1930s
##NSK
##92
##ples
##dob
zmanjša
zaliv
zabl
voted
tovrstne
speech
smjesti
sinu
seksa
proto
prinesla
prevladuj
pokrovitelj
ostro
odreza
odločitvi
novinarje
nogometaše
neče
masti
kolon
inici
fam
confirmed
Trumpa
Thing
Surv
Stam
Promet
Opti
Kok
Jadranu
Hugh
Harbo
Gut
Galerij
Evropsko
Cour
Ada
##ALN
##ár
##ziju
##vre
##von
##urce
##terol
##right
##ique
##eko
##dij
zgodovinar
zahtjevi
vrn
vođa
vladne
tišin
tajna
raspi
proge
primeren
pridobili
poletje
pogodaka
pob
operates
odvaja
nadm
kožn
informaciju
igranje
fiskaln
dopusti
dominira
demokrati
crkva
comment
budget
bles
acid
Munch
Jutr
Jok
Jas
JEZIK
Gao
Duš
##dla
uređenje
turnirju
tul
televizijski
surge
stani
soccer
saborski
ratio
procijeni
prizadeti
pravnim
postot
nekajkrat
namjen
mislio
materialnega
kupila
fighter
educated
društev
demon
Warren
Ura
Skupštin
Peckham
Paš
Mač
Marino
Mack
Glor
Eto
1885
##ube
##onia
##mne
##ml
zračne
zmo
zap
vses
ustvrdio
umak
udeležencev
srčan
soul
podlago
okrenu
objavljiva
nikome
nedostatak
natje
mednarodnem
litera
kozmetič
kab
flood
downtown
dilem
automobili
Walk
Svjetsk
Stad
Serv
Guitar
##ovao
##jenega
##abo
zaznamoval
veoma
sau
purchase
prir
premoč
preis
poči
pismen
opredeljen
nano
mou
ladi
japansk
izvjes
istinu
idejo
hob
faced
economy
duš
drugje
dosežk
arrangement
Publishing
Odi
Nataša
Mono
Chap
Assistant
Anglij
Adi
##roe
##oste
##has
##eln
širin
zapisala
zagrija
ubrza
tehni
sklenila
razp
proper
povprečj
partnerji
offering
ministrov
magic
korisnici
finishing
destroy
brus
avtorjev
Tomaš
Sisa
Pobjed
Inv
Gay
Bloom
Azij
Ameriški
##usion
##upe
##prije
##lib
##lda
##lađ
##iled
##ijom
čovjeku
uvel
turizam
svjetskom
razgovori
pru
proizvodni
odličj
observ
nosila
nevjer
nadzorova
modno
mestn
kuhinji
kliz
izl
combat
Vince
Orb
Nancy
Moram
Kož
Informacij
Andrija
##KS
##BC
##čilo
##wei
##mato
##jevanje
##erin
##bitn
##ax
##atičn
ways
svakoga
slavio
reo
razumn
razočaranj
prepričana
potisn
poruš
podpiso
oste
korisni
izrazio
izgledati
intervjuj
efikasn
collected
Volk
Ruski
Roche
Namesto
Marshall
Kranjsk
Gale
Cum
##RAN
##riu
##renj
##očn
##nč
##njene
##nf
##lcev
##iha
##evin
##ater
Štud
zdravnika
ureditve
tekuć
scena
proh
pomiri
plasti
odprti
nadvse
mane
imen
enco
dodan
disco
device
beha
Wilhelm
Walt
Svako
Suz
Kuha
Fak
Dvoj
Actor
Acc
##т
##čega
##rici
##ovalo
##lik
##lett
##esn
volan
traj
simp
rubrik
razvr
pripadnost
prihvaćen
prekinut
polazni
podana
odlukom
obsodil
nenavadno
load
lijep
komunalni
klop
klasik
kazali
isc
gledate
emerge
cri
contained
anket
abandoned
Zapo
Vand
Pero
Kay
Gw
Goth
Egipt
Cinema
##Le
##onica
##omin
##lls
študije
vojaško
ugledn
tistimi
spl
predsed
novc
nadaljevali
monument
message
komplet
koaliciji
felt
evropskim
dodaj
djeluju
bliže
bistvene
attract
agresivn
Ridge
Pričak
Policijske
Norvežan
Kraljevi
FE
Blu
15th
146
##žin
##zic
##odav
##noš
##kovič
##bina
##bav
čij
zmagovalec
vojaki
učil
upad
uncle
umjetnic
tvegan
tjelesne
strplj
sporoča
sala
revizijo
razmerju
razisk
razgla
prvotn
pričakovanja
privlačn
oso
odredba
oddal
obravnave
legendarni
jobs
izključi
izgin
imale
globalni
entirely
Zadovolj
Thie
Obi
Kraljev
Kakor
Holland
HSLS
EL
Dalić
##yg
##uršk
##reb
##llery
##lišt
##jednik
##erje
študentov
vrta
vrhovn
ukupni
turističko
trap
suc
strok
situacijama
selo
scr
radar
pump
provi
ponoviti
pogodb
opredelil
mršav
fizičk
dostupn
Wright
Tehni
Stevens
Schr
Reala
Lai
##pič
##oks
##mora
##moni
##dona
##beno
##ajanj
Često
vije
ustanovit
turista
službenici
representing
prošlogodišnj
pokrenut
opst
opponent
odb
napadača
nadoknadi
ministarst
leden
košar
kazenske
kamere
glasovanje
fruit
dup
dolar
distr
diagnos
Znači
Sergi
Proces
Mob
Luki
Fau
Cesar
Andr
##100
##reti
##inju
##gical
česti
zahtevn
srpske
snova
prostorsk
predsedniški
partnerja
otroki
oblak
nagovori
kombinira
jad
investicij
dolžan
dobivaju
daljši
analitičar
Squ
Sanc
Rafael
Philipp
Nemam
Mercator
Masters
Card
Anders
##sma
##lut
##kinj
##iers
Đoković
časti
vjerni
veljal
upanje
trenersk
tekmece
svježi
skušali
prijetn
prezime
pravega
paral
onom
obla
normalni
napadalc
mislite
medijih
kreditn
komisar
komadi
istraživanju
doživio
ciljev
centuries
brojem
braniti
aktualne
SVOJ
Pomembno
Maruš
Lem
KE
Flight
Babić
9th
##tizira
##liar
##leč
##gree
##eljen
##dv
##bek
zavedajo
uporabljen
umjetnički
strojn
stečajn
rijeke
rasto
preiskovaln
permit
oto
otk
oddaje
obnovu
objašnjenj
niži
mot
licenc
izstop
fill
fenomen
aktivne
Zve
Trac
Slovenskem
Nos
Kv
Enc
Današnj
##Si
##roy
##ečn
zgodovina
vstopa
volunteer
viewe
turnirja
try
spra
solar
rešiti
rekreacij
razdelil
raspored
provoka
prip
preiskavo
portalu
plačil
obstoječi
obravnavali
nominiran
listopadu
knock
insur
goved
glavnega
fantje
essential
clean
bojim
UFC
Spomen
Postav
Poslije
Poja
Plu
Perry
Oregon
Marsh
Košarka
Johann
Jamie
Dvije
Dau
Anta
Akcij
##STO
##Ri
##91
##šam
##jskih
##ezi
##evih
##bj
##atov
žlice
zaključak
večernj
vari
urbani
umakn
tovrstnih
sež
razpr
progress
prepoznaj
prepared
preced
podan
obletnic
obiskovalcev
marihuan
km²
izvajalc
isključi
intr
institutions
desire
dem
bijel
athlete
angleške
Strin
Primor
Madžarsk
Liz
Isle
HG
Dolenjske
Božj
##HS
##26
##vami
##pam
##lij
ščit
zaklad
vrhunsko
voliln
suffer
riješen
reign
reduce
razvijati
protot
pac
ožujku
otkl
odredil
obsegu
naravnost
mariborski
ledu
koncerti
handle
fresh
electro
desetljeć
Samp
Nicol
Communist
Bj
##vri
##umb
##rage
##prav
##pom
##ladin
##icah
##cijsko
Život
znesk
zmerno
zasu
vsot
vročin
varijant
valid
skokov
popoldan
pogodben
poginulo
parlamentarnih
opozicijsk
okras
ljubljanske
komunalne
ključna
izba
ispitanika
invalidske
installed
glavnom
exter
edited
dubok
carry
banan
balkon
Return
Ravno
Pride
Energy
Double
Cuba
Alenka
##čje
##ćima
##zbi
##udo
##pect
##enn
##bak
##avn
zasnovan
vztrajno
uspešnost
trained
pritožbenega
primorsk
paz
okre
nežn
mednarodnega
kvalitetni
krene
kaznivo
gradili
gorivo
flying
drob
dokazal
debate
abs
Tamar
Prem
Potrebno
Poi
Oct
Lovr
Cerkev
##75
##ujuće
##swa
čarobn
znaš
zmagala
začeti
zastopnik
vztrajal
temn
subt
structures
razumljivo
prija
predstavnicima
predlagali
poskušali
poskup
popri
podaljša
pasa
osebnosti
obvezne
objavlja
neupravičen
napoveduje
musicians
lič
kolegama
jednostavn
izvedl
dobesedno
dejstev
communi
biva
Vre
Posa
Jedino
Iri
Ful
Fab
Eight
Dobra
Astro
##šol
##vred
##pne
##lev
##ježn
##iet
##erce
##cali
čitatelji
zanimiv
upućuj
ugodni
transp
takvom
sloves
resurs
quar
proizvajalc
priredil
pripisa
principle
povprečno
portret
obvešča
inch
fli
entering
depres
autoric
Schl
Odbora
Kdor
Hold
Dekl
##zao
##tory
##tkom
##rut
##ovca
##nap
##lasi
četrto
zmanjšuje
zaljubljen
zakup
tries
skrivaj
samouprave
plastik
pisarn
ostvarili
odlučuju
noti
mešanic
methods
lepš
kultn
industri
gosp
express
existence
dokazova
dječaka
compli
Rop
Pusić
Perc
Osijeka
Gel
Cele
Atl
##tist
##nolo
##lož
##lasni
##enko
##adni
vt
upali
suggested
strategija
statističn
skrival
sistemsk
scientist
reviews
punc
ovakve
neutemeljeno
nepoznati
nemogoče
mok
inicijativu
infrastrukturo
gledališča
funds
dic
detail
deno
Ugovor
Sličn
Prevc
Places
Pack
Otrok
Nikolić
Milano
Joy
Barc
Angela
Aka
Aber
##UD
##tze
##ovne
##ogodišnj
##ogl
##jega
##hee
zaraz
zaostank
vratima
važne
ubojic
studira
srednjeg
sankcije
resources
puna
prepričanju
prekom
porazu
popularnost
pogrešk
plaž
planovi
petj
odpadk
nagrađen
maintained
legaln
književno
katastrofaln
istih
inspektor
grb
energetski
društvenih
domačim
cilje
bub
Tet
RAZLI
Makedonij
Jani
Grade
Fore
Dele
Chr
Breg
Amo
Airlines
##VNO
##EA
##zivn
##snič
##qi
##num
##kun
##eće
časnika
zažele
vježbe
vara
uživaj
ugnal
typical
svje
svečan
sodnikov
risa
ranking
pritožbene
prijetnj
prelazi
pozvala
najvjerojatnije
nadležno
kolektivne
impres
fizio
confus
Sang
Musta
Moti
LAHKO
HK
Found
Ema
Amerikanci
##roj
##rili
##ežn
življenjsko
žao
završn
zatoč
zaposlovanje
vsake
vertical
skupinsk
simula
senator
razpolaga
probav
prepoznavn
postelji
posli
pastoral
osebi
ogr
odakle
lands
krema
koncertn
grounds
gripe
factory
domovi
Vasil
UR
Skoraj
Simp
Rekl
Popular
Odmah
ESPN
Blair
##žur
##rnu
##mski
##hei
umjeren
udeleženc
smejo
slednje
skro
rig
returns
pristupi
prez
posk
pomočnik
planiranj
otpr
otoč
ogleda
obuhvaća
nasploh
krivnj
greatest
fotografijo
ext
drugačna
deželi
Uprava
Ume
Sweet
Shr
Pren
Medveščak
Jedin
Bruslju
Anth
##sum
##sac
##nato
##mens
##iment
započ
vinogradni
toba
spodnje
simpatičn
restorana
recepti
planning
ozdrav
odmev
nemškega
lansko
konst
konačnici
jasna
hur
deseto
dejanski
cl
breed
attempted
Upravno
Upper
Tv
Prošl
Pose
Pia
PZ
Org
Murd
Maš
Kyl
Koo
Jama
Herceg
Colonel
##201
##sme
##mmer
##enosti
##eho
##bna
##arch
veselo
udio
tretja
trdijo
separati
predan
političkom
podeželj
pića
oteža
ognj
obrtne
obremenit
najhitrej
ljetn
knjižnice
knjiž
izenačen
izbjeći
faze
determined
depend
actual
Todorić
Nika
NOVO
Brijeg
##sions
##raž
##ored
##misl
žic
vlož
veže
veličine
udov
tuji
tesn
suglasnost
streho
soj
slogan
slične
sab
pčel
primerjav
pravima
optimaln
ogledali
obdolženc
notice
natančn
najla
najhujš
leas
kritičar
inženir
hud
glasba
aspekt
Wins
Vuko
Publishe
Međunarodno
KU
Hla
Carm
Advent
##Ha
##yz
##wy
##tice
##ranih
##ovod
##osit
##orm
##lte
##ivne
##ističn
worldwide
većih
sportov
sojenje
proč
priopćil
preteklih
pogovarjal
opterećen
odobril
njuni
motorjem
locations
lesa
krun
košarkašk
indo
hin
glumc
glumačk
generali
fondov
dajal
argumenti
Slovenj
Sino
Prom
Living
Lex
HV
Giovanni
Christin
Cald
##RC
##tomi
##riva
##rif
##obe
##dnik
##alc
živio
znanj
zaporn
vlažn
višk
uporno
starred
slogu
sitn
simptom
reca
prepustil
preg
pile
osme
nogometna
načinom
naprijed
ljut
konkretnem
klimatsk
industrijski
imme
graditelj
fail
državljana
doček
buč
Wad
Studios
Podp
Heath
Dosad
Colin
CT
##ém
##ç
##sd
##retn
##otin
##njač
##kij
##jane
##cko
zavrže
vaši
uspostavlj
upe
trust
rush
rema
povi
pokušaja
pametno
odjela
nezaposlenost
lai
krizn
ht
graduati
export
dokumentov
decorat
Srednje
Sede
Bavar
Basi
A1
1850
##Pe
##NOV
##oljub
##njaka
##nion
##fel
##enata
##dha
žanr
zasluže
zaokr
stavbe
prijašnj
pribor
preba
potvrdili
odkril
odhaja
obilježava
nadškof
nab
maksimaln
ljepš
listen
gostovanju
forg
europ
ego
drugemu
beyond
aline
Začel
Zastupni
Zahval
ZZ
Sony
STO
Rudolf
Prit
Predlaga
Originally
Ml
Koncert
Katoličk
Im
Francoz
Dus
320
1889
##utno
##stavi
##oki
##mist
##liž
##insko
##aški
Švedsk
zatekl
zaslužil
vecernji
trdo
trdit
storili
stih
prov
postign
organizatori
kladi
izvješću
ham
glazb
females
estetsk
autorsk
Zapad
VEČ
Friends
Buz
3D
##rez
##hodn
##fal
ŠT
ŠE
čutil
visin
uspeli
underw
temeljni
smisel
sinte
pripraviti
pravc
osjetil
opravljajo
officials
mislil
izpod
določilo
ceremoni
bosansk
agresij
Xa
Smi
Podsje
Naz
Miloš
MAN
Labour
Domin
Danny
Atlanti
##NS
##EG
##BR
##vjer
##tog
##stir
##mad
##icle
##icima
##goj
zanimalo
trenucima
ratnih
prive
prijateljski
prevencij
postavljeni
pojačan
omoguć
nogama
nastoji
motorn
jače
dosp
dogajalo
dign
dama
crijev
colon
akcijsk
Prihod
Piv
OF
Milanovića
KD
##ô
##uha
##rove
##odni
##ješen
##ering
Šef
zavla
zata
svjetl
spomenut
singl
partnership
lob
ljevi
kreta
himn
dovoljeno
cestah
cancer
boln
Tuc
Trib
Otok
Maga
Jul
Imaj
Angle
##Br
##žina
##ë
##sek
##rži
##own
##got
##bić
##ačen
živahn
volio
umjetnika
tržni
threat
struggle
sjedal
savi
rane
preuz
plemenit
osmisli
olimpijsko
neprist
milost
mandatu
liječenja
lažn
ent
ensure
drink
dodamo
dimension
dežela
defe
celotnega
ask
Wid
Warrior
Slavonij
Proda
Grani
Enter
Begi
##oar
##loni
##emn
##cken
Čez
vrstu
visual
vert
ustal
resta
prosincu
pretpostavlja
preteklost
prepričanje
počutil
parkirišč
odgovarajuć
obol
nemi
nastopajo
napoti
međunarodno
lanskem
korisnicima
končali
internal
ino
gren
fal
dijelove
dez
describ
causing
bell
agree
ZG
PODJETJ
Nekatere
Nac
Lana
Kak
Edinburgh
Duj
##DU
##šim
##vremeno
##tvorn
##trajn
##terap
##ssed
##sas
##elt
žlic
žl
čoln
Čist
Čim
večeru
vajen
twelve
tav
suž
steb
spomladi
spel
songwriter
socijal
sanj
reprezentančn
rebel
razgovarao
ogranič
objaviti
nekretnine
motiviran
moralno
manage
lawyer
jeftin
izvedli
geneti
doživela
divn
dispute
Vp
Venezuela
Petrin
Obje
Mode
Danish
##ziti
##tles
##rts
##master
##lv
##evaln
šokira
zre
zanimiva
wait
uvršča
usi
univerzi
travnju
tape
successi
strukturn
središ
sredinom
spriječ
sadašnj
revizij
resničnost
recognition
prvostopn
pravedn
povratka
povjeren
plaćaju
none
neighbour
načelnika
nasilni
nasa
laž
kemičn
incorporated
identificira
desetletje
brutaln
barvn
actions
Suns
Smatra
Population
Nikad
Limited
Colon
Afganistan
1899
##unu
##orja
##lsk
##hant
##ende
##chel
čreves
wealth
sredstvima
samu
rukometn
razreš
različna
pripr
prestop
paramet
opposed
okret
okoljsk
oblačil
nikakvih
navedenega
mand
magn
krajš
književnosti
jutranj
išao
izz
invited
improve
govern
dolgoletn
aplikacije
ami
Oblast
Naro
Marian
Gmina
Barne
Argentine
Animal
##38
##osk
##omb
##laze
##eter
##cional
zavezanc
vzorce
vrijeđa
vpogled
vedela
uc
tranzicij
theater
strukturi
streli
stanovnici
stajal
renovat
preras
preiskave
prehlad
poveća
plodn
pečat
obdavč
neovisnost
nasprotni
najljepši
muta
krepit
južni
ironi
gledalci
formul
duo
demonstrate
decades
bencin
ag
Zrinjsk
Slovašk
Rovers
Pl
Dubravk
Bella
##čija
##zijo
##tič
##spi
##rami
##hil
##gija
##efe
##ebl
##ators
zbol
tvr
triko
tria
tragičn
suđenje
stabilnosti
slije
shee
sections
sec
satellite
plaćati
okoln
odigran
novic
nevi
napustio
najbogat
krajevni
izjemo
improved
igrat
grades
emisija
djed
convict
consult
breg
besedila
bee
avtom
adut
Mednarodne
KC
Hrast
Hob
Dolenj
Aki
##HF
##ćenje
##tran
##table
##ročn
##rhi
##nate
##lanta
##but
##alnih
značilnosti
totaln
spremljeval
slijede
prou
protivnik
proizvođač
progi
prizadel
postopke
postojeće
općinsk
odlučuje
misliti
marketinšk
legislat
izvolit
družbenih
cestni
camera
brodograd
advertis
Vem
Treat
Plant
Najs
Markov
Gdje
Elektro
ET
Djeca
Diz
##BS
##ér
##ylo
##mins
##jenjen
##imina
##ghte
##chy
##cet
zmaj
zavrnila
učinili
tekućin
skupščine
sadi
radost
provedeno
potje
podnijeti
obiskovalce
nadzornik
matura
kredite
encounter
družin
dolazil
bodov
Vale
Simi
Nedo
Nature
Cv
Božo
Baronet
Antoni
##LJI
##JAN
##ornik
##fat
##enge
štand
Šir
zaznam
vroči
velikos
vaterpol
smuča
scheme
satelit
ree
pričakujemo
pripadaju
prile
pojem
ploč
oduzet
nezadovoljstvo
natečaj
laid
ekipn
dobival
dnev
dinamičn
bremen
abb
Vienna
Trži
Staff
Mada
MD
Koren
Avtor
Američk
##mičn
##lišč
##jivanj
##itelji
##fur
##entn
##bno
##bie
##andi
Član
zaposlenici
zajedništv
zadnjim
trudnoć
tiskovne
susjedn
spravi
skladišt
sez
replace
računala
radijski
prosjek
propisa
primerna
presudi
poteškoć
političkoj
oštr
naji
lecture
lau
kvar
kuhinje
koren
kolektivno
kitar
izhod
istočno
interacti
energetske
eeeeee
dugu
defende
afr
Vinko
Upo
Ukrajini
Roland
Movie
Letošnj
Krk
Kek
Goal
Ded
Byr
Architect
Aqua
Aman
1897
1892
##tele
##tehni
##oss
##isu
zapeljal
viri
videla
večine
veljači
upora
ultimately
ukup
trgih
stupnj
simboličn
pune
priporoč
postan
pomeril
parent
odločiti
obremenj
nemojte
mineraln
manjina
linea
količinu
kmetijstv
klasič
izbral
identity
dobrog
dežev
combination
check
breme
Quar
NASA
Moskv
Matic
Hig
Constan
Bož
Bach
##urb
##jama
##gm
##egi
##dini
česa
zvočn
začuti
završili
zahodne
zabavni
vjenča
visini
univers
taborišč
senc
pomenu
pohištv
otkako
opozori
operira
njemačko
kilometr
izne
istočn
glazba
funkcioniranj
carri
broken
bralce
bodi
april
ape
Wan
SF
Room
PP
Manager
Buri
##čenih
##ujoče
##chard
##bha
zaku
uspešna
suvereno
spanj
spadaj
raid
pridobila
popa
ponosa
podupir
organiziraj
odigrati
nedvo
manjkal
glasil
generalnega
chee
Wheel
Welsh
Valj
Ukraine
Rupe
DOL
##čijo
##rež
##opl
##mol
##lnim
živim
čaro
zaslužn
zakonov
user
unijo
toplot
svejedno
skupnih
satir
samoza
preka
posljednjem
perspektive
parlamentarni
optimističn
opasni
odje
naglo
kranjsk
koalicijsk
izvoza
izgrađen
istraživa
gradivo
golom
exercise
dvoran
conce
braku
acr
Stea
Sporazum
Slovenk
Rac
Priprema
OT
Moto
McCart
Marvel
Fon
Eve
Crown
203
##36
##vsk
##vare
##opol
##ilov
##erf
##arc
##acijsk
ško
zračno
treća
starog
smanjil
routes
register
računati
proračunsk
pristanišč
povećal
potpisivanj
največjo
motorni
motivi
koristil
domoljub
Zvezd
Zaje
Theater
Teks
Private
Pripo
Pain
Ljubljanski
Koh
Hypo
Brazilij
Borussi
##ITI
##uća
##rted
##rimin
##pje
##nol
##nezij
##gis
Švedska
vratili
vnetj
unf
trećeg
stavite
soglas
služben
skuha
sestr
reve
razmi
prikazati
podignut
pisalo
odjeće
oddajo
obri
nazočn
items
divide
daril
bijeg
avtorsk
Tata
Slijed
Razl
Obo
Krš
KAR
Glavaš
Cold
##vč
##vjed
##ovcu
##oslov
##lip
##kano
##borough
sadašnje
redi
razr
priznanj
poroče
ozlijeđeni
ostajajo
obto
nevar
nače
napušta
naklonjen
joining
izvede
irr
ipd
inicija
graj
enci
doznal
dedi
Zara
Tria
Reme
Olivi
Ods
Lepo
Europsku
Bev
Baz
##wor
##stol
##lou
##iste
##gua
##geni
žreb
zavid
zasedl
zagreb
ulaga
uključiva
suše
statistic
spremenili
razprav
povz
odabral
marsik
lam
iznenadil
glavnim
champions
balon
afere
Woo
Turkey
Trou
Sina
Rakitić
Lutheran
JU
Cox
Conce
Ax
Amerik
##GL
##~
##zič
##hij
##ees
##aril
ć
zauzima
zahvat
vetr
utvr
ustanovitelj
univerzaln
toler
tkiv
swi
svjestan
stands
spola
roditelje
reprezentaciji
que
pse
profes
presud
prepoznava
predvoliln
predmetov
povod
pojmov
poc
opravič
odmak
odlaze
nikakav
naročila
nanjo
mrtvih
lova
jog
izvod
fini
dinamik
derived
coup
bliza
Rumunjsk
Reco
Polja
Gom
Dodatn
Bugarsk
Božidar
##đani
##vodi
##uđ
##eljsk
##dak
Ćir
zgl
umetnostn
tali
spomenika
snim
sanje
prived
prihvatio
premijeru
pošiljk
pospeši
poročilu
pogajanj
plak
pic
odstran
nepla
majhno
listo
lijepi
kraljic
jedinstveno
imm
gostoval
gitar
fascin
blagajni
avtonom
Sveučilišt
Pee
Ottawa
Orange
Mississippi
Liga
Leader
Ekip
Dominic
Delhi
Crn
Armen
##RJE
##Jo
##29
##ničar
##lines
##jevsk
školovanj
zneska
zaposleno
zaporni
vzgoji
varia
uč
ustavi
ugotavljajo
tradi
slovesno
skupinu
resigned
pustili
prisoner
prirodi
pripomogl
prilagoditi
preskoči
preporučuje
poznatih
poskrbi
posjetitelja
pokoj
poezij
organizatorji
operate
naslovu
naravni
izvršni
industrijsk
dugotrajn
dates
Winni
Vers
Studi
Seda
Roth
Pravzaprav
Page
Općine
Oli
Newcastle
Nemoj
Ibrahim
Era
Dvo
Cus
Clar
Austriji
Ank
##ževa
##čino
##sić
##rma
##oln
##nicima
##ičast
##ground
številki
šalj
vk
telefonu
tajnic
studentsk
staz
stali
puls
povre
posljednjeg
poskrbeli
podrejen
pečen
oblikov
nastopal
korekt
kaznenog
histori
glasbeno
fak
dobrobit
deveti
collaborat
bolju
bitj
Traži
Razi
Ral
Pravilnik
Poljud
Obs
Obja
Mach
Helio
Fly
Fight
FF
##JS
##ŽN
##tetn
##plj
##karj
##ješa
##izon
##iplin
##dik
##dba
točnije
temno
raš
prikaž
preminuo
precejšnj
pozi
pesti
passenger
partneric
overse
nikogar
neha
muz
mjesn
istraga
grown
gram
donira
Rusk
Roko
Proto
Heid
Bogat
##čenja
##vano
##valjni
##mera
##ižn
##izirani
##haja
##elova
##cri
##cide
##blo
Županijsk
znašala
zlatni
začnejo
zastar
udeležb
tožilstvo
razigra
razdeli
ravnateljica
provjera
proceso
odjeću
negotiat
nanašajo
lime
hired
gume
ekonomskih
eco
dram
conclu
brojk
batter
WH
Sjed
Rut
Poljska
Mene
Bruxellesu
Alpha
##žuje
##šena
##vaćen
##mova
##mine
##mia
##asto
zli
zgr
vrećic
vjerova
usmerja
upoznao
soundtrack
skliceva
sestri
prostori
prispevkov
prebu
offs
mana
ljubljen
klijent
izpostavlja
izbere
info
dvorišč
Ustavnog
Talk
Raven
Prid
Obič
Noben
Mariborčan
Inštitut
##PP
##uy
##pali
##ajno
študija
zmogljivosti
trile
tlo
stranački
stick
skrajno
pretekle
poticanj
podvr
opravljanj
onemoguć
neugodno
negative
karakteri
javljaju
independence
explosi
bijele
aplikacija
absen
Vaše
Serbia
Savez
Madžarske
Kristus
Kop
Cijel
1894
##teti
##rian
##dljiv
##cab
weak
tekl
supporting
strašno
sovražnik
sonce
pružiti
predstavljanj
possibly
ležal
kalcij
iznose
iskoristil
injured
headed
gm
dijagnosti
cvi
Zaj
Kupa
Drugog
Bund
Beau
1888
##WA
##sred
##pedi
##pava
##indvajset
##inat
##ility
##hibi
##eman
##dnevno
školski
utemeljit
superior
sanira
proizvođači
procese
pregledal
postojal
poduzetnika
odziva
obratova
napisati
motora
memori
lansira
kapu
izredni
izmi
interchange
gradiva
goji
dvojice
defend
Tvrtk
Suh
Physic
Label
Broz
##OK
##43
##zgo
##oge
##obr
##kut
##kacije
##jave
##ingu
##bridge
župano
življenjski
Žuž
zmožnost
zak
unutarnj
tola
sumnjiv
stvarnosti
seats
prekriv
plačo
opazili
odloži
obilježil
nenadoma
napustil
mun
jur
izosta
imovin
hra
fanto
emisij
državnoj
devetih
davek
contributi
circum
bencinski
aplikacij
Tot
Slovakia
Osn
Najn
Maze
KOMUNI
Brkić
Alice
##ženje
##vnost
##room
##rgen
##rena
##rand
##jt
##iranju
##ieve
šali
zadi
tovorn
svojeg
smučarsk
sadja
rodi
pridruž
pojedinc
painting
otvoril
osvrnu
obrađ
nožem
nastave
nasi
naseli
kugl
kratek
koncerto
kapitaliz
izvr
functions
epil
dozvole
dijelovima
defi
borc
bitni
Takoj
Prin
Kamp
Conse
Chal
Balkanu
Amazon
Ace
##zla
##sul
##riran
##orski
##evropsk
##etn
##atr
šampion
znašl
zavezniš
započela
zamoli
zala
ustavnega
udaljeno
solution
prireja
posjeć
pig
og
občinstvo
načrtovanj
navdih
najmanjš
medijsko
layer
kompletn
izrab
italijan
gledališče
določili
crta
bora
athletic
admi
Unije
Tok
Stuttgart
Strategi
SEM
Det
Cruz
##voji
##tlan
##spr
##odišnji
##inš
##godišnji
##erit
žirija
članstva
zvišal
večerj
t0
sončn
relief
pozabil
piv
okrepit
novinarjev
nevjerojatn
neuradn
nago
kazalo
gozdars
gospodinjst
globin
faz
drugačiji
desete
criticis
climb
cjelovit
ciljn
bis
billion
Zapadn
Uredb
Read
Phi
Nijemci
Narodne
NSi
Kristi
Jab
Enri
Domu
Canal
##Pri
##CIJE
##tw
vozilu
varuha
srečanj
sire
režira
razvijal
prsi
provoditi
primanjkljaj
pokušali
performans
omenjenega
natjera
moraln
medalj
gy
gura
developing
dekle
Vsako
Unc
Taiwan
Roberts
Rights
Razlik
Late
Konk
Gera
##LJE
##şti
##čati
##word
##vy
##thy
##stansk
##ione
željezničk
školske
zatvaranj
zagrebačk
vlad
uživo
uživali
utrka
uklo
trgovački
torn
samouprav
revij
pronađ
prejšnje
pravoslavn
poslovi
omejitev
odigral
obravnavanem
oboga
najljepš
ljestvici
glup
elemente
duhovit
conse
beb
bajk
arra
Trumpov
Trebnje
Pari
Mila
Lancaster
Armi
##čiće
##ćanj
##tnu
##tena
##pit
##nden
##ljavanj
##gun
##fte
##fro
##bach
vsakodnevn
vojaških
tož
tokratn
tehnično
stakl
spriječil
razvojn
racionaln
push
prostorij
pozitiv
poglavlj
otrov
oprostit
operational
obećan
nužn
napredek
maslinovo
logič
cin
Zgodb
Tali
Slavonsko
Slab
Pož
Poly
Pok
Matić
Mateja
Ind
HNŽ
Boc
##nskog
##lid
##etica
##eji
##avljen
želez
zemljiš
zdrava
wrestl
uva
truda
shaped
regiment
publisher
proše
pridružit
poslovil
poglob
pobjednika
partneri
osebam
odpad
notably
naučili
izađ
introduction
hla
drawn
doh
consume
Unij
Novom
Jasen
DD
##RED
##INA
##ščenj
##čarsk
##sez
##niranj
##kil
##acu
švicarski
čuda
vlastitim
uli
trudnoće
sniž
psych
projektom
privab
prepa
predstavnica
pozdravlja
postavk
poništ
poginul
osve
optužb
odse
nastopu
majhni
kuli
kolesarje
izašao
guns
evr
equivalent
employees
dra
dolgov
constant
boo
Zagrepčani
Vl
Section
Predstavlj
Opi
NP
Jess
Gradc
Azerba
##CC
##ANJE
##opera
##ological
##ndl
##ktur
##ais
sponsor
sodbi
slušal
skor
seri
seconds
radijsk
provedbu
pobegnil
naveza
metro
jun
intens
dnu
dežurn
comm
cikl
Naples
Medij
Matte
Kristo
Coo
Cathedral
Cass
Bright
##HL
##rte
##dajal
##band
čeln
zvezni
vizu
uspije
travell
srpnju
spoznali
sovra
sigurnosni
robe
privatizacije
prepovedi
podrške
palači
ozbiljnij
najrazličnejš
metropoli
mention
medium
izabral
intenzivn
epo
drastičn
djelu
dežele
demokratski
bivših
Vri
Velenje
Remix
Regi
Račun
Hacke
Future
Fres
Feder
Dunaju
Done
Deputy
Benedikt
##GOV
##tolo
##tnim
##tf
##sič
##insk
##erse
##ekcij
uče
tereti
relati
premagali
obiskoval
močna
mlin
manufacture
konference
izvozni
grozn
aka
Zahvaljujući
Valen
Sik
Rid
Nizozem
Montana
Ljubo
Izl
Clare
Arnold
##ère
##zirani
##zie
##vsko
##vijed
##stio
##iža
živeli
šmink
Škofj
zadobi
vročit
vod
vladar
večern
sodelovati
raznolik
prona
potnikov
potencial
orders
opek
nastajanj
močnejš
mirovina
malu
imunitet
evening
damo
alternativ
Where
Present
Mov
Javno
##wh
##vag
##sville
##slan
##mental
##hova
številnimi
Šer
zmotno
zavrne
tujc
spraševal
servisa
sadrže
radikal
pritisn
prepir
poiz
paziti
parkirn
parc
objektivno
obiln
obavljen
nepos
nedopust
naposl
nagodb
koordinator
izrađen
igralsk
exact
dubrovačk
domi
dokončn
commenta
celotni
appoint
adventure
WW
McCa
Lloyd
JI
Hour
Griffi
Filipin
Edm
Dovolj
Asi
##osto
##jednic
##itur
##afri
Đa
uređ
uko
turizmu
trick
thr
standarda
som
sjaj
raspad
promije
pripremu
prepr
pozitivan
pozablj
povzročajo
povrnit
povijesno
poudari
policijskih
određuj
nickname
mobilne
krive
izjav
ispis
dugova
domovine
constitution
advantage
Završ
Zai
Rene
Prob
Princ
Muškar
GE
Finnish
Deutsche
Came
Ard
Admiral
##umo
##stvi
##mf
##ivši
činiti
zamijeniti
užas
usklajen
ugovoru
tragov
surađuj
stike
sportaši
skoki
sije
seznamu
rezi
reprezentanco
rasvjet
prosječno
preostale
preo
percep
organizacijam
optimist
odločanja
ocijeni
najt
istup
gradskog
dugov
doruč
digitalni
certifi
biggest
Warner
Pradesh
Najbolje
Murphy
Mok
Loren
Kurd
Juli
Jeruzalem
Islamic
HM
DELNI
##mlj
##kato
##gil
##anka
##ajen
Švedske
Đu
zaustavlja
zahtevne
vlog
trdil
tešk
teste
tertiary
svijetl
suvremen
spremljajo
predz
postigli
plaži
osvetl
organize
napolni
nadgrad
morja
konzo
kombinacije
izgradnji
engines
duc
aboli
Torin
Slavon
Safe
Ride
Quin
Pritožb
Official
Obli
Mountains
Hann
Extr
Dže
Collins
Bože
Alc
##NOST
##CD
##zaciji
##tma
##lili
##icira
##erenci
##enha
šamp
zarobljen
zalo
zadevah
vodijo
verjamem
uravnotežen
sobot
regard
razvi
razra
razočara
puko
premis
prah
početn
otvorila
nog
neus
neh
nakupu
kitajski
izjeme
inozemstv
hoo
gostin
delovanju
beljakovin
Zagorj
Stip
Seri
Railroad
Pono
Odluk
Nemčije
Napo
LGBT
Kijev
Graf
Gle
Dvor
Corr
##Cha
##Car
##zacijo
##uat
##tad
##stne
##rv
##dition
zbornici
zadruge
veš
uspela
svjet
suhe
slijep
skromno
regat
pokrajine
odgovorili
napi
ministr
krvavi
kontekst
inšpektorj
eventualno
dale
civilni
architecture
Vip
Ujedinjen
Still
Reš
Pine
Nel
Lovren
Kape
Francozi
Este
Cord
Cert
Betty
Baptist
Balt
190
##UK
##tea
##stop
##rtn
##ovsk
##leš
##anin
urejeno
umora
udarce
turist
tradicija
sprečava
slovesnosti
restr
recikl
razlozi
raspravu
pričaj
prijavila
obstoja
obiskovalci
mozga
marti
license
jaha
crown
contrast
božičn
atta
Zag
Twi
Porta
Pavla
Kraš
Govor
##ŠT
##unk
##sun
##stoj
##dul
##atori
čekanj
zami
zahtjevn
zabavno
tuš
tožnici
tednov
slijedeć
razgleda
primjerak
pretep
prekin
prekid
pojas
pogosteje
parallel
organizam
mislijo
meš
marki
liječi
istaknu
intercept
hibrid
ginekolo
fib
Tang
Right
Rd
Rau
Lub
Celjan
Aleksandr
##EE
##44
##urne
##rupt
##oć
##nus
##nacional
##mara
##jus
##ecti
##alt
##aine
žark
čelnik
vp
vizualn
ventil
swa
supervis
spomenuto
socijalnu
settle
ruled
razumem
prometnic
povoljni
potpora
postopkih
poslodavac
okrenut
obtain
obrambni
objasnila
nothing
njune
nedjelje
navdušil
mješ
jaki
igram
feeling
egz
dvaput
blisko
Wed
Urad
Trev
Sinj
Rig
Revo
Puerto
Občina
Massi
Emir
Dund
Dist
Deka
Colt
Bora
Any
##II
##zdr
##nete
##kovo
##egl
##alic
značaja
zakonskimi
ustanovitev
tribina
terape
sets
scenes
samostojne
rud
reševalc
radilo
prostorno
prisjeti
pouzdan
potok
obstajal
neznane
nesrečn
lotili
loti
libr
križe
kriminalističk
kapljic
izgo
hosts
električno
dokazali
dirkal
details
characteristic
branj
bliski
assess
approache
Vlatk
Text
Songs
Som
Protestant
Kovačević
Hed
Centru
Afghan
##stance
##por
##pisn
##pene
##njk
##mej
##kre
##etov
##enni
##cani
##aut
vzpostavlj
vrijedni
uporabnikov
unutrašnjost
ulask
težavami
spirit
regulat
prisjeća
prazno
povjerenik
patron
osebj
obdo
novomešk
nic
nani
moš
kolonij
kocka
karakteristik
izbiro
industrijske
evident
dual
diplomatski
detalja
dansk
coverage
cond
Zha
Thir
Savjet
Preda
Mošk
Ljubljanske
KULTUR
Filozofsk
Claudi
Associate
Armenian
André
##NU
##ull
##tp
##rsi
##ovljen
##niu
##iček
##isten
##evem
##erm
##ably
zvije
združuje
vzpo
vrag
vpisan
volitvami
uspešnic
sunce
ruko
razš
prestolnici
preb
potražit
polufinalu
podlog
opći
odvojen
oddelku
ocenjevanj
občan
napaka
najstni
najemnin
lopov
ljubavn
kruga
izdelek
hrabrost
goods
geograph
elegantn
dvajseti
določenem
derivat
baka
arrive
adresu
adaptation
Upoz
Ukrajine
Stockholm
Sham
Repr
Predstavnik
Pai
Pag
Osam
Odk
Haz
Goj
Fleet
Defens
Banj
Aleks
Alban
205
##rož
##ovalc
##cock
##aža
čel
zaostr
vrtića
učiti
uporabili
ukaz
svjedoka
suci
poskusil
pold
podra
opravičil
omjer
oktob
oduvijek
objavljene
naročito
namestnik
kazalište
kapaciteta
izgubo
garn
announce
Zlo
Tuzl
Slovak
Rossi
Rif
Koroškem
Kiss
Južni
Gus
Fantas
CF
Aleksander
Albi
##POS
##šnih
##vert
##upljen
##tela
##siti
štedi
češnjak
zana
vroč
vratarj
raise
popot
pasivn
panik
osl
odkritj
lek
kompeten
knjižni
dl
devizn
cry
chas
Toplic
Stane
Prvič
Odličn
Lop
Giants
Edi
Dobil
Acco
##želj
##tja
##staj
##njsko
##mlja
##jce
živin
verzija
učinkovitosti
tožilstv
skupščini
revis
radnj
prš
prosvjeda
prihodnjega
presi
posredovanje
podnosi
očes
otvorenom
obdolžen
mean
kancler
hon
finding
dužin
dugogodišnj
dajejo
affect
Zapravo
Pt
Pored
Naveden
Mnogo
Ljubav
Instru
Indoor
Aug
##visn
##riv
##ibilit
##hnu
##dot
ukr
uključ
udeležili
spoštovanje
računov
propor
producers
preure
ponedeljk
polici
pokrenuo
obični
nezadovoljni
navika
najvećim
ljubimc
kreat
kakršno
jeziko
jeste
evangeli
desetletja
coordinat
cestne
božj
antifaši
Viš
Edition
Democrat
Chas
AlignBars
1884
##Tel
##šati
##post
##pire
##orj
##chr
zbirka
ustanovili
telesni
rukav
razkriva
prodor
pritožben
primerljiv
preprečiti
potrošnje
papirn
ovakv
odrasta
mladež
literary
lex
katedral
katalog
igrajo
etike
credited
coache
akademij
Zdi
VSE
Tanja
Suš
Razv
Primary
Požeg
Poči
MG
Ks
Kaka
Energ
Basketball
1862
##tore
##skemu
##ilc
##eir
čuvaj
čem
Češke
zanesljiv
vrnitvi
utvrdi
utopi
uredu
sought
select
rizika
reprezentativn
redk
ogre
kriju
izvući
izvješća
gar
deželni
ciljeva
ambiciozn
Titov
Razstav
Protect
Podjetje
Maa
MN
Fisher
Dogovor
Commander
##časni
##saj
##nag
##ljuju
##ijek
##gest
##elu
##dip
##ativ
črpal
zaz
zaru
vsebina
standarde
sledijo
segre
resembl
prikupljanj
predu
pošlje
populi
organizirala
opposite
novcem
nesv
navedel
nauk
napol
nadležni
mrzl
margin
mame
leads
kliničn
inhabit
gramo
dovede
contributed
confe
bolesnik
analizo
adjacent
Ticino
Pora
PRIMER
Lena
Casi
##Di
##utin
##stno
##služ
##simo
##nanja
##most
##lež
##lač
četni
znajde
zmed
vsakdanje
vrući
vješta
varne
usposabljanj
uređenja
uničil
tematik
svež
showing
sestank
rotat
razpoloženj
pripelje
predsjednice
pomanjkanja
pištol
osmijeh
okužb
obroka
objavo
obdel
nazval
mestne
klica
kaznen
jadran
izvrši
inspiracij
ep
dvorišt
dušo
Stori
Sop
Sarajeva
Poda
Method
Franca
Flu
##62
##ziji
##sili
##očen
##ovaln
withdraw
uvrstitv
ustavni
udruž
toleranc
struck
snimanje
smotr
slišali
sklepu
rei
razrešit
prošnj
premoženjsk
povečalo
potaknuti
pianist
opustit
opportunity
odškodnino
nudil
nisko
navr
namirnice
morebitn
izmenjav
informiranj
godišnjic
daljnji
Vaj
Davida
Bogdan
Bend
##šala
##znu
##tino
##orp
##lep
##jenost
##jedni
##eles
##dbu
##dano
##atn
škols
zaključk
vocal
umo
tehniko
ruci
presegl
prepričljivo
predavanj
omenjeno
obveščen
neuspešn
nedavne
napustiti
mojoj
mladog
lokaln
lokacij
ligo
izvle
distincti
bound
USS
Turske
Orl
MTV
Jučer
Jac
Gorana
##Sh
##vaja
##tate
##roa
##raže
##panje
##ivu
##feld
zvuči
zval
sustain
rezerviran
raspl
pronašla
povezati
postavljaj
pedagog
okrožne
odluci
obrambne
obavještajn
navijačima
nasmija
najmo
muško
menstrua
jednoga
hodoča
hite
duhovne
dokumenata
diss
dina
dif
commute
boleč
automatski
ZGO
Sanadera
Monta
Komi
Hrv
Helena
Elvis
Connecticut
Conn
Borisa
##vera
##vajući
##stavljen
##ršen
##oric
##ook
##geno
##esto
##enem
##ear
##cea
##bound
##atsk
šoka
Španjolska
čude
čo
zahvaljuje
vjetar
vijek
utrci
uporabljal
topic
težke
srečuje
smuč
smet
rose
programski
programsk
praznoval
potrazi
ponudio
pisao
pestr
ormar
ocenah
obaviti
neos
naveli
muški
motiva
mlečn
litrov
lamp
kovinsk
identiteta
gasilsk
enable
employe
dediščin
blokiran
autori
angel
analog
aluminij
aggre
Učin
Sje
Nekad
Mich
Klar
Gui
Const
Albums
##Sp
##čr
##ćivanj
##zah
##urni
##tku
##thu
##jko
##eba
##break
Žig
štirinajst
zasliša
vložitv
trajal
tožilc
territori
telefono
svećenik
strategi
stimula
solidarnosti
snimanja
ruskih
provedb
promjenama
podelil
pioneer
opremu
odnese
mrak
inšpekcijsk
inspirira
generi
dvojezičn
državljanstv
dosada
deželne
dav
brigad
bančne
Vjerojatno
Univerz
Poka
Pje
Ostali
Koreja
Fitz
Berge
Alabama
##čnica
##tsk
##ormi
##metri
##kno
##igo
željen
človeštv
znoj
zloupo
zatraži
zapisa
vsebova
vlakn
učink
uvjeri
ugotovljen
stabiliz
skrat
regularly
really
prosta
pregovore
pozne
postrojb
pogrešno
podraži
pisac
očiju
oddaji
navedena
lokali
kosovsk
iskati
grobo
expens
easily
dobrodeln
dobiven
branitelji
angleški
Višnj
Vesn
Thailand
Sovjetsk
Moguć
Milorad
Materi
Lead
Idea
Computer
Belle
##vori
##rve
##phe
##ngi
##nation
##lif
##avil
čekam
zahodn
uznemir
uzme
utvrditi
trgovci
spasiti
sestav
seiz
revolution
redatelja
razmerjih
prenovi
poluvremenu
osobne
obiteljske
naranč
mladima
izumi
influenced
fašiz
emocionaln
delil
delavce
crosses
costs
collaboration
Pitt
Philli
Ministri
Kee
Ill
Ilir
IB
Hua
Hope
Generaln
Cond
Cim
Beograda
1887
##ICA
##Bro
##ulje
##rdn
##oria
##dru
##akovi
štetn
završe
virtualn
summ
skriven
sjajni
railroad
radnom
publikacij
presu
premiera
podlo
opusti
krovn
kritično
julij
hlače
ches
ZO
Uga
Sez
Međugorj
Maur
Lazi
Harl
Financial
Buenos
Buda
Bomb
Agn
##Sta
##ML
##yar
##ump
##skop
##pek
##ood
##jaju
##jad
##hie
##eolog
weather
učencev
update
trup
tožnice
toč
televizor
sudsko
storila
stoletj
stanovni
skrajša
shem
rokomet
pogre
poduzetnik
pisanja
oza
otrokov
oblikovanju
novels
nameravajo
naloži
nagađa
kupu
konkretnih
izvrsn
hosti
globalne
energi
dies
audit
Radić
Nicole
Najb
Lje
Jastreb
Goe
Gašper
Družin
##usand
##tum
##tb
##rence
##odišnje
##nicama
##lock
##lated
##ict
##arat
zemljišt
zajedničk
vuk
vika
ustvarjanj
tuč
transmi
subote
smok
prose
preneha
predlagatelj
povzročit
poimenoval
podrobnej
podelj
pobjednic
nevarno
naok
multip
medalja
junction
izvedeli
istoimen
ispal
generate
experiment
dost
dokumentacijo
delavnice
danger
bogastv
ax
Zb
Vinkov
Ulaz
Svjetsko
Sm
Samsung
Sac
Razp
Predsjedni
Meksik
Look
Ključn
Guan
Emb
Cres
Cool
Broadcast
BL
Areni
##An
##wski
##rukt
##pita
##niran
##mij
##istični
##erd
##avno
##aktivn
čist
zabi
vrhunc
vrednostni
vek
skromn
reforms
razdeljen
prometna
prod
preuzima
poručuju
polj
pogr
oznak
odstopa
odlask
njiv
kondicij
interesov
gledališč
feel
explore
ethnic
collapse
cenejš
brinu
bac
automobile
aris
alpin
affiliate
Volim
Tvrd
Svjetskom
Sedaj
Piano
Nine
HU
Gim
Finland
Edwards
Dove
Cave
Barišić
##rome
##rato
##ntn
##ild
##gravanj
zahtevam
why
spored
soglasja
skuplj
sfer
provision
poudarjajo
potoval
opasn
obrtn
obolenj
novice
nared
najlepš
mechanic
ladje
izmjena
investicijski
foli
emphasi
curve
crop
competitions
Zvonk
Wak
Pavi
Libij
Kont
Jews
Gradiš
Cana
##JŠ
##usu
##strat
##rme
##pta
##ores
##nčić
##isin
##etar
##cian
##avajuć
##agl
čišćenje
uđe
tretjin
temeljem
strm
sklenit
ps
pridonije
prednji
prec
potuje
pomanjkljiv
podpre
passengers
ovlašten
overt
otroške
oskrb
našl
navede
mak
kilometer
kartica
insu
cura
crowd
borili
boravak
akademije
Training
Torre
Splićan
Retr
Rabbi
RTL
Mitr
Minne
Mess
Latvij
Kere
IST
Domagoj
Doll
Cig
Americans
1893
##yla
##view
##stot
##ruž
##irat
##gral
##dovan
življenj
človešk
zauži
zatvorsk
zadostn
ugotavljal
sy
submarine
smiri
sabora
printe
primjenjuj
predstavu
pospr
ponovne
operativni
odstotek
napot
nameni
najug
minimalne
kreću
krajši
igran
graničn
digitaln
charter
bilanc
Scout
Poslan
Okrožn
Nacionalno
Eti
Core
Anas
##ožil
##omu
##kovc
##inut
##ikan
##hma
širši
zaljubi
ukazuj
taktik
stečajni
sogovornik
pud
prisu
pravih
ograničenj
odvjetnika
mars
marin
lastništv
kilometra
kaznivih
gladk
funkciji
eyes
dollar
djetetu
discr
brezpo
albansk
Ustava
Sprem
Owen
Nijem
Memor
Crow
Blažević
Bett
##xim
##vrst
##uve
##uva
##park
##nku
##mič
##meno
##maš
stvarnost
slut
sestavljajo
serv
razvijaj
promoti
prikupljen
potovanje
ponud
poginuo
playoff
novemb
načrtu
nanes
monopol
mirni
ljudeh
importance
grijeh
financ
dvorano
decade
današnjih
causes
Viz
Slavi
Rey
Pote
Pho
Peng
Nare
Možete
Dobr
Bath
Banja
Background
Austrije
##žit
##ysi
##utt
##bd
##bam
zovu
zgodaj
uzbuđen
uveljavil
tril
tamkajšnje
skrbni
reaction
razumje
procjena
prikri
preokre
praise
posredno
populacije
opušta
nevarni
nesl
mestnega
lopte
koruz
konzum
izpustil
izmijen
delay
atentat
Rubi
Quarter
Preo
Palmer
Medicine
Ira
Grk
Films
Dw
Bomba
Blanc
Amerika
##UJE
##šće
##ČIN
##poln
##opn
##onim
##luk
##lače
##inn
##anca
vzeli
valu
udobno
repeated
radit
preverja
poslovna
poslanstv
podjetništv
odustaj
odlagališ
mladića
mislila
međunarodnim
luci
krasi
kicke
izboljšanje
expand
engaged
domestic
dno
cabin
apostol
Zaključ
Roga
Dobo
Career
Aff
##LL
##For
##zmo
##lation
Šp
zlahka
worth
uzvrat
uvrstila
usko
strokovnega
spust
socialnega
seksualni
regarded
pustiti
pregledo
pravde
povelj
odsotnosti
odba
obljublja
mobile
kompli
izkaza
crne
baza
accommodat
Uskrs
Scre
Sandr
Osjeća
Njegovi
Linds
Koba
Juk
Guer
Dura
2500
##šli
##ćih
##ych
##enč
##edit
##anica
četrte
zvezda
zaspa
vpe
treni
theolog
tad
strateške
stayed
srp
sprint
sprejetj
rublj
revščin
redakcij
protivni
preserv
prepreči
poštiva
postavitev
pisa
naknadu
nagov
naftn
kuš
kompa
izruč
izognil
izdavač
dojav
Zer
Spomni
Saveza
Poljsko
OM
Munster
Mek
Kuć
Franj
Deep
Belgium
Amerišk
##TAL
##55
##žnost
##rain
##pravn
##ovj
##orti
##movi
##issa
##hovi
##atak
##amu
Žar
Številn
zimski
viš
usporedi
ulaž
ubuduće
troše
suh
pridružili
pridon
prever
poručila
policijsk
podoba
odstotne
odpor
nevro
nazvan
mrk
kotač
kir
jan
gift
dodijeli
arranged
aretira
Slika
Rogers
Nemčijo
Loka
Laš
LS
Konst
Kand
Japonsk
Ilij
Benet
Academic
##ušt
##tete
##sai
##ovit
##joj
##isl
##ibit
##erno
##ept
Široko
časopisu
završetka
vključeni
usli
upi
suđenja
slon
shvatili
ris
regarding
razvod
rangi
prsto
pronašao
preživet
podobnega
piće
organiziral
opaz
okolin
odjednom
obnašanj
nepog
neizvjesn
naslednjem
napredovanje
napadal
nacionalna
komunističn
kakšnega
jogurt
idući
iduć
humanitarni
glasbi
faith
extremely
embr
drža
domaćim
assum
Veroni
Tournament
Prik
Pava
Hvar
Grav
Charl
##sira
##rtan
##mt
##mma
##klju
##kara
##jah
Židov
zavoj
witness
weekly
vukovarsk
umjetnost
suprugu
struje
spominsk
spomenu
smijen
slje
sirijsk
registr
razgled
proširenj
presenetljivo
posvetiti
poganja
pobr
ohranit
nezaposlenih
neobično
narasl
nadomestil
march
mamo
kolodvor
izšla
intelligen
intelektual
delodajalcu
centimetara
bombardira
atr
Terra
Orthodox
Northwest
Najav
Koši
Kho
Fed
Concert
Armstrong
##ENT
##tsu
##orit
##ogen
##nče
##nul
##llu
##alist
zunanjega
warn
turističk
svjeto
strelj
steče
stavio
sadrža
ručn
proposal
personalit
oral
omogočal
ofenziv
obramben
neč
naplać
miza
lovorik
ljubljansk
lepa
izvođenj
iznije
izma
fotografsk
delit
asist
POSL
Lazar
Jelačić
Indonesia
Hudson
Doug
Clin
##uži
##radi
##pent
##membnejš
##jako
##ision
##hara
##ezan
##body
wh
vrhnj
vojnici
ukinut
tveganja
temper
sonc
rjav
rijek
profesori
pridružila
presojo
plastični
odrediti
nezav
narodn
nanje
naivn
mouth
lošij
krenul
krajevne
kopij
komercijaln
kažnjen
izvrstn
izvajajo
deni
capture
brojev
analitik
Zub
Visi
Number
Naprav
Moskva
Melani
Kmalu
Kind
ISIL
Cerkve
Carmel
Aid
Action
##VP
##FO
##žk
##xic
##transk
##tite
##pski
##nr
##lani
##jič
##beri
šestdeset
Češka
znanstvenih
upravljač
troj
svijesti
studenom
stigl
solist
slad
qualified
protivnika
prisutni
prikaziva
prevzema
pozici
posjetiti
poetry
pećnic
oprost
olajšav
neš
nemško
meters
liniji
gljiv
djevojk
detaljn
delala
cijenama
bolova
Til
RK
Premi
Očito
Nizozemske
Maksimiru
Končn
Hos
HIV
Gregori
GLA
Cemetery
##STA
##FT
##tivne
##pev
##canje
žival
špekul
tožni
suca
različito
prolazn
privuk
preobl
potrebam
postopki
pomogao
poluvr
osobn
opušten
obaln
nemate
nasu
infl
igric
brain
beauty
Varaždinu
Srn
Ovak
Nash
Muni
Janše
Ime
Folk
Devet
Caval
Brin
##raja
##nari
##kivan
##ives
##ffo
##adin
železa
Ćorić
zda
zaslug
vpi
tun
teenager
spretn
spred
rešili
revolucije
prijevoza
praćen
počn
popravlja
poklicne
podrum
podala
pitali
osm
odbojk
natančnej
napisali
moralni
izostan
izjednač
habitat
glasni
eksplo
dogodku
dobičk
dizajnersk
crnog
cime
alleged
Zatim
Operat
Novega
Nagla
McCo
LC
Kea
Egypt
Dola
Derek
Delov
Aca
##čju
##west
##postav
##olom
##jerava
##fli
##dian
##arjen
žličic
čust
wine
pravnik
poškodba
poteze
poste
pomor
planinsk
pisno
petko
pekar
osr
osn
organizaciju
nosečnost
nizko
nevarne
napovedujejo
najve
međunarodnih
količ
inc
ilustr
decrease
cook
Trbov
Tall
Porezn
Members
McLa
Lao
Indija
Darij
Bras
Bark
Baran
##perat
##ozn
##onski
##iling
##gao
vodni
teškim
svobodo
strasti
slatki
reprezentativc
remix
razveljavil
prinese
posluje
podrobno
partnersk
ozbiljni
opozorilo
obvlada
njemačkog
najkr
najboljšim
najava
masl
licensed
konstantn
kiša
engage
enaka
doline
dimn
deploy
Zeleni
Watson
Want
Ultra
Toyota
Talijan
Stel
Performance
Jorge
Flow
Camb
CNN
Brazilian
Administration
##AP
##čank
##yll
##olja
##cioni
##box
##anon
životne
Športn
čimbeni
Četv
zdrž
zadovolji
uradi
sudionik
smir
representation
preživjel
prež
prehrana
počutj
potegn
philosophy
organizatorj
oglaša
održi
odmi
obveščevaln
oblačila
najgor
listine
kreativnost
iskanju
interm
household
golo
financijskih
enters
elektronske
duties
drame
določbah
distributed
churches
boks
amandma
affi
Vprašanje
Sparta
Poga
Nasprot
MK
Lions
LET
Krat
Izme
Ground
Colors
Branch
##UC
##JN
##žek
##tely
##sao
##reat
##posl
##očni
##osh
##odne
##nami
##inij
##hof
##erma
##endi
##edanj
##dova
##arke
##ajsk
##ability
španski
ška
Število
čokolade
čelo
zemeljsk
vrijedn
volji
višja
vitaln
vaših
tug
svjetla
stretch
rođenja
propa
pritožil
prihvatil
prenose
premik
povračil
poklicni
podržati
odradi
meno
matri
ljubljanskem
lati
kretanja
izpi
izbornika
instruction
instance
impro
hang
cano
TU
Sever
Rosen
Romo
Reading
Pij
Ou
Maxim
Kopi
Gaelic
Diplom
Cyr
##NIM
##uvrščen
##tki
##style
##stav
##krit
##jz
##inf
##eši
##dena
##cie
##cala
##akti
zaprl
uzvrati
ubaci
tujino
stići
spletnih
shod
scenari
psycholog
promijenio
pridelk
posloval
ponajprije
pojedinci
pacijenata
otherwise
osumljen
objecti
ludi
kmetijsk
izpr
iti
haašk
gospodarskega
europskom
dvojb
druženja
deč
dei
bid
biciklist
behavior
Zoper
Martine
LL
Kitajska
Kell
Intera
Gund
Gilbert
FBI
Dubrovnika
Alk
##žm
##vito
##sth
##shm
##nct
##nanc
##kcion
##jevanja
##jalo
##ebi
##dva
žič
zdraviln
započel
vrv
voljel
tent
techno
svakodnevni
riječk
retail
rese
potezo
policajc
pohvaliti
pogreške
podelili
peljal
opredelj
oduševi
neobičn
nazad
najin
landing
izdali
gibanj
gender
filmskih
dopre
cease
asistent
Slobodn
Peters
Odpr
Observ
Muri
Mist
Mihael
MU
Ljutomer
Leban
Jedini
Gav
Apol
##53
##ujete
##ovsko
##ound
##lični
##hna
##ffin
čuvar
trom
spiritual
sociolog
skoči
rov
resp
prišle
predsednišk
pravicah
pravdni
poplava
pasu
okn
ohr
obrača
nisk
neodl
najboljšega
motorja
mladostni
missing
medved
materni
mandatory
inde
doživet
doktora
cje
circuit
blagi
akc
acoustic
Zahtev
Yes
Vozi
Točn
Topl
Služb
Napoleon
Hey
Hajdukov
Goo
Dete
Crne
Crna
CEO
Aven
##wd
##pell
##nejše
##lain
##ilic
##grav
zapel
zamen
verjeti
umira
terensk
stolu
slabosti
retained
prvenst
poslopj
poprilično
oporb
norvešk
nevid
nepredvid
nemudoma
neda
mojo
medicinsk
lastnikov
kvalifikacij
klap
inštituta
immigrat
fee
fanov
compu
armo
Storm
Stara
Nil
Nao
Litera
Koj
Harvey
Filipović
Anja
##IB
##zone
##uist
##atra
Đo
združil
ya
vpl
spasil
sojenj
slovenskimi
ruše
revolucionarn
prizadeval
preplet
predelav
personnel
parkira
otvorenj
obuk
obstoječe
obavezn
nedjelj
međunarodni
liš
kratki
korake
jednostavan
jadr
izrazili
izraelski
index
greš
granici
ekolo
dozna
dojenč
događaji
dijabet
damaged
boljša
astm
View
Odločitev
Muj
Kron
Klein
Javi
Istraži
Imao
Igna
Editor
Drnovšek
Bosn
Ark
##zig
##ransk
##ožn
##ovci
##ljivega
##ljenim
##ited
##iss
##iješ
##gred
##ento
##cr
##bish
##avan
živce
zgradili
wire
voć
vatro
topl
takem
suprotstav
sposobna
snimke
separated
razmjer
pursue
psihiatr
prijateljstva
povla
planove
pitaju
osnutk
oltar
oboljel
nob
nesre
neodvisnost
navzdol
nagovor
naboj
myster
loc
izločil
interr
godišnjaka
finančnega
environmental
domaćina
contin
cjepiv
cinema
bowl
akv
Ponud
Papi
Hern
Diamond
Depo
Cong
Chin
Chev
Bulj
Atla
##vs
##vjet
##teto
##rila
##naro
##asni
zahtevko
voze
vjersk
vite
udaljen
tuži
survived
studiju
starta
slavonsk
sistemati
shopping
sastoj
ručak
prepare
pojavljajo
philosoph
pavil
odred
ocijenio
inh
fiks
drve
dodijeljen
distan
designer
borac
apl
analiz
allo
Winner
Rie
Korošk
Izgub
Grm
Chance
Arsen
Advance
##šolsk
##wned
##vc
##tenj
##tega
##pn
##jor
##ištv
Šent
weapons
vladal
vidn
uvođenj
upor
tražim
smisao
računovods
rastline
properties
predla
pozno
postojanja
ponudbi
pobijedi
ozk
ovisnost
overs
osje
okolnostima
obvladova
nameščen
najpomembnejših
najavila
minuto
kršit
kritičn
koče
koncentrira
katast
izvedene
iznenad
izgledaju
inicijativa
individualn
grupi
faks
drobno
danu
daljše
cijelosti
broadcasting
adapted
Zdravni
Smil
Pea
Obl
MR
Kostelić
Hitn
Hama
Flying
Calgary
Bonn
Alternativ
##UT
##OJ
##98
##pite
##maker
##long
##jiv
##ijeni
##ffi
##elektra
zanikal
vsakd
virtual
views
većeg
umu
trebate
touch
spon
sop
sjeća
sisa
ribolov
reside
priseg
poznatog
porcij
očaj
owners
nemoguć
mrz
mladinske
kritič
kov
izvijesti
hitov
evaku
emigrat
duša
domnevno
desetk
cup
climate
char
alkoholn
ae
adopt
Sporting
Somet
Sliš
Schw
Ivanč
Honda
Dole
Djevoj
Buch
Bori
Bata
Anđel
##rico
##erio
##eha
zdajšnj
voditelje
successor
sjećanja
razva
razsod
prilagođen
prelije
predloge
pravosuđ
poljski
osamljen
opinion
odšte
obvestil
negativni
najbližj
nagrad
nacionalnog
modre
krava
jedinic
izm
infrastructure
infi
granicu
božićni
alb
aj
achievement
Slovenec
Ribnic
Price
Predn
Popov
Poet
PT
PSG
McDonald
Maya
Exc
Crveno
CV
##LU
##šenja
##vila
##učni
##jaz
##ilij
##gran
##asn
Čovjek
zastupni
uzrokuj
uvrščen
ukla
ugla
trgovanj
travnjak
tran
tkiva
svetovalc
stee
specifično
simptomi
samoo
ročn
repertoar
proveli
privoščil
pripi
prijevod
prela
predviđeno
počinju
povzročila
povel
pori
pogodn
podprli
otkrić
novoro
nepravilno
nedaleko
najdu
majhen
izvedeni
izdaji
huge
dopo
direkt
demonstr
brojn
bolesni
beogradsk
authori
Schmi
Preg
Jero
Grud
Gradonačelnik
Falcon
Beatles
##Wa
##vnij
##tanje
##sovi
##oši
##orin
##nejo
##ička
##hri
##gib
##fis
##dica
Žid
zapira
vanjske
tisočakov
terorizma
stvaranja
stotinjak
sodobno
severo
sejmu
samopouzdanj
raza
profile
previsok
pojavili
pečenj
perhaps
occupation
obljetnic
nedovoljn
mrtva
mountains
marks
log
kućanst
krad
komunalno
izdeluje
izazvao
italijanskega
institute
hab
fundamental
filled
charts
butt
bov
bab
Zame
Ralph
Puk
Pošt
Pev
Letter
Helm
Določ
Ciril
Chile
Bradley
Archive
##SKO
##željn
##zav
##yana
##lma
##lišk
##ištvo
žrtv
završil
vlastitog
vatrogasci
vanjski
tumači
takt
središte
specifičn
sodišči
slasti
razumevanje
provinci
posr
področ
načrtov
najvažniji
izpust
infant
funkcionar
formiranj
dw
dopoln
dih
amateur
Zadnja
Wig
Universi
Prešernov
Malta
Lončar
Locat
KBC
Jasn
Gorišk
Ghost
Geoff
Elliot
BM
204
##DEL
##šteno
##tip
##tics
##quit
##leta
##etno
##chn
##avlj
##ares
uprizorit
umetniške
teorije
sveučilišt
supporter
spominjal
sončni
sajam
resident
prug
preventi
pretirano
presodi
prednostn
ponoć
ovogodišnji
okl
odvis
nerv
manjšine
lopt
litara
kolumn
kios
kazno
kardio
izno
humanitar
fatal
embar
dogra
dijet
destroyer
describes
bond
apartment
Vie
Srečk
Relati
OC
Nacional
Mud
Mladinsk
Highland
Heavy
Cano
Biogra
Beni
Akt
##99
##uge
##tost
##teni
##point
##ovom
##flo
##ašk
##arov
##ajš
Štajersk
vplivom
vozio
strat
stag
prs
preverjanj
predsjedničk
obrambi
neči
nastanek
nabi
mre
modn
medita
izabrani
ira
inn
februar
faculty
excellen
eleven
desetimi
closely
ari
Ulic
Ugot
Train
Strah
Shop
Razmi
Podob
Oči
Luxembourg
Kart
Judi
Jadransk
François
Fam
Dominik
Celov
Bott
Blis
Besed
##TAV
##tične
##poz
##menu
##ljali
##fore
##ciral
##anjsk
znanc
zahtjeve
zadovoljiti
suočava
spoštuje
snow
sjede
sic
scholar
samopo
regulator
regen
razbija
qualifi
psov
proi
preparat
potrošača
popeljal
occurs
nepričakovan
nekatera
natpis
kilo
kamenj
izuzet
goriške
dosledn
cerkven
celice
Vrb
Tree
Tong
Stuart
Poč
[...]
